{
  "version": "1.0",
  "truncation": null,
  "padding": null,
  "added_tokens": [
    {
      "id": 0,
      "content": "<|endoftext|>",
      "single_word": false,
      "lstrip": false,
      "rstrip": false,
      "normalized": false,
      "special": true
    },
    {
      "id": 1,
      "content": "<|pad|>",
      "single_word": false,
      "lstrip": false,
      "rstrip": false,
      "normalized": false,
      "special": true
    },
    {
      "id": 2,
      "content": "<|unk|>",
      "single_word": false,
      "lstrip": false,
      "rstrip": false,
      "normalized": false,
      "special": true
    }
  ],
  "normalizer": null,
  "pre_tokenizer": {
    "type": "ByteLevel",
    "add_prefix_space": false,
    "trim_offsets": true,
    "use_regex": true
  },
  "post_processor": {
    "type": "ByteLevel",
    "add_prefix_space": false,
    "trim_offsets": true,
    "use_regex": true
  },
  "decoder": {
    "type": "ByteLevel",
    "add_prefix_space": true,
    "trim_offsets": true,
    "use_regex": true
  },
  "model": {
    "type": "BPE",
    "dropout": null,
    "unk_token": "<|unk|>",
    "continuing_subword_prefix": null,
    "end_of_word_suffix": null,
    "fuse_unk": false,
    "byte_fallback": false,
    "ignore_merges": false,
    "vocab": {
      "<|endoftext|>": 0,
      "<|pad|>": 1,
      "<|unk|>": 2,
      "!": 3,
      "\"": 4,
      "#": 5,
      "$": 6,
      "&": 7,
      "'": 8,
      "(": 9,
      ")": 10,
      "*": 11,
      "+": 12,
      ",": 13,
      "-": 14,
      ".": 15,
      "/": 16,
      "0": 17,
      "1": 18,
      "2": 19,
      "3": 20,
      "4": 21,
      "5": 22,
      "6": 23,
      "7": 24,
      "8": 25,
      "9": 26,
      ":": 27,
      ";": 28,
      "?": 29,
      "A": 30,
      "B": 31,
      "C": 32,
      "D": 33,
      "E": 34,
      "F": 35,
      "G": 36,
      "H": 37,
      "I": 38,
      "J": 39,
      "K": 40,
      "L": 41,
      "M": 42,
      "N": 43,
      "O": 44,
      "P": 45,
      "Q": 46,
      "R": 47,
      "S": 48,
      "T": 49,
      "U": 50,
      "V": 51,
      "W": 52,
      "X": 53,
      "Y": 54,
      "Z": 55,
      "]": 56,
      "_": 57,
      "`": 58,
      "a": 59,
      "b": 60,
      "c": 61,
      "d": 62,
      "e": 63,
      "f": 64,
      "g": 65,
      "h": 66,
      "i": 67,
      "j": 68,
      "k": 69,
      "l": 70,
      "m": 71,
      "n": 72,
      "o": 73,
      "p": 74,
      "q": 75,
      "r": 76,
      "s": 77,
      "t": 78,
      "u": 79,
      "v": 80,
      "w": 81,
      "x": 82,
      "y": 83,
      "z": 84,
      "~": 85,
      "¡": 86,
      "¢": 87,
      "¦": 88,
      "©": 89,
      "«": 90,
      "¬": 91,
      "°": 92,
      "±": 93,
      "³": 94,
      "´": 95,
      "¶": 96,
      "¹": 97,
      "»": 98,
      "Â": 99,
      "Ã": 100,
      "Å": 101,
      "Ë": 102,
      "â": 103,
      "ĉ": 104,
      "Ċ": 105,
      "Ġ": 106,
      "Ģ": 107,
      "Ĥ": 108,
      "ĥ": 109,
      "Ħ": 110,
      "ĵ": 111,
      "ľ": 112,
      "Ŀ": 113,
      "ł": 114,
      "Ń": 115,
      "he": 116,
      "Ġt": 117,
      "Ġa": 118,
      "Ġs": 119,
      "Ġw": 120,
      "nd": 121,
      "Ġthe": 122,
      "ed": 123,
      "Ġand": 124,
      "Ġto": 125,
      "Ġb": 126,
      "in": 127,
      "Ġh": 128,
      "Ġwa": 129,
      "re": 130,
      "Ġf": 131,
      "ou": 132,
      "it": 133,
      "Ġl": 134,
      "Ġc": 135,
      "er": 136,
      "Ġd": 137,
      "Ġhe": 138,
      "Ġwas": 139,
      "Ġm": 140,
      "Ġp": 141,
      "om": 142,
      "ĠT": 143,
      "Ġo": 144,
      "ay": 145,
      "ar": 146,
      "ing": 147,
      "is": 148,
      "Ġg": 149,
      "il": 150,
      "id": 151,
      "at": 152,
      "en": 153,
      "Ġn": 154,
      "Ġsa": 155,
      "Ġha": 156,
      "ĠS": 157,
      "ĠThe": 158,
      "an": 159,
      "im": 160,
      "or": 161,
      "on": 162,
      "Ġit": 163,
      "Ġth": 164,
      "ll": 165,
      "le": 166,
      "ĠH": 167,
      "Ġher": 168,
      "et": 169,
      "ot": 170,
      "ir": 171,
      "ĠShe": 172,
      "ĠHe": 173,
      "es": 174,
      "ver": 175,
      "Ġin": 176,
      "ut": 177,
      "ow": 178,
      "ck": 179,
      "Ġe": 180,
      "ĠThey": 181,
      "Ġu": 182,
      "ld": 183,
      "oo": 184,
      "ig": 185,
      "Ġy": 186,
      "Ġsaid": 187,
      "Ġr": 188,
      "Ġbe": 189,
      "ily": 190,
      "am": 191,
      "Ġst": 192,
      "ce": 193,
      "Ġshe": 194,
      "Ġ\"": 195,
      "pp": 196,
      "ke": 197,
      "ĠI": 198,
      "ith": 199,
      "ve": 200,
      "On": 201,
      "Ġwith": 202,
      "Ġof": 203,
      "Lily": 204,
      "Ġon": 205,
      "Ġso": 206,
      "ked": 207,
      "ri": 208,
      "Ġhis": 209,
      "nt": 210,
      "Ġpl": 211,
      "very": 212,
      "Ġyou": 213,
      "ad": 214,
      "Ġday": 215,
      "Ġthat": 216,
      "Ġup": 217,
      "Ġhad": 218,
      "st": 219,
      "Ġplay": 220,
      "Ġthey": 221,
      "el": 222,
      "ĠLily": 223,
      "Ġmom": 224,
      "Ġfor": 225,
      "Ġwe": 226,
      "ould": 227,
      "un": 228,
      "my": 229,
      "ĠB": 230,
      "The": 231,
      "'s": 232,
      "Ġhapp": 233,
      "ent": 234,
      "ch": 235,
      "itt": 236,
      "Ġli": 237,
      "Ġwant": 238,
      "out": 239,
      "Ġsh": 240,
      "her": 241,
      "ly": 242,
      "Ġvery": 243,
      "ound": 244,
      "ime": 245,
      "ome": 246,
      "se": 247,
      "ittle": 248,
      "all": 249,
      "Ġdo": 250,
      "end": 251,
      "Ġtime": 252,
      "Ġwh": 253,
      "Ġnot": 254,
      "Ġlittle": 255,
      "Ġthere": 256,
      "Ġk": 257,
      "al": 258,
      "ĠĊ": 259,
      "ht": 260,
      "Ġne": 261,
      "Ġhappy": 262,
      "Ġre": 263,
      "Ġbig": 264,
      "ĠM": 265,
      "Ġsm": 266,
      "Ġbut": 267,
      "ĠIt": 268,
      "ack": 269,
      "Ġsaw": 270,
      "Ġan": 271,
      "riend": 272,
      "Ġfriend": 273,
      "Ġis": 274,
      "ra": 275,
      "Ġas": 276,
      "ry": 277,
      "One": 278,
      "ide": 279,
      ".\"": 280,
      "ake": 281,
      "'t": 282,
      "ved": 283,
      "Once": 284,
      "ug": 285,
      "ter": 286,
      "Ġloo": 287,
      "Ġwere": 288,
      "ore": 289,
      "ec": 290,
      "Ġlo": 291,
      "!\"": 292,
      "Ġhim": 293,
      "Ġbo": 294,
      "Ġtoo": 295,
      "Ġgo": 296,
      "irl": 297,
      "Ġse": 298,
      "ĠTim": 299,
      "Ġupon": 300,
      "Ġgirl": 301,
      "Ġwanted": 302,
      "Ġj": 303,
      "ard": 304,
      "ill": 305,
      "Ġout": 306,
      "Ġsp": 307,
      "way": 308,
      "Ġthem": 309,
      "fu": 310,
      "Ġat": 311,
      "Ġcould": 312,
      "ind": 313,
      "ur": 314,
      "Ġare": 315,
      "hen": 316,
      "ĠA": 317,
      "Ġdid": 318,
      "Ġtheir": 319,
      "Ġsmil": 320,
      "ain": 321,
      "Ġex": 322,
      "hed": 323,
      "art": 324,
      "Ġhave": 325,
      "Ġwent": 326,
      "Ġar": 327,
      "rom": 328,
      "ic": 329,
      "ĠJ": 330,
      "hing": 331,
      "ful": 332,
      "Ġall": 333,
      "lp": 334,
      "Ġnam": 335,
      "Ġfriends": 336,
      "ight": 337,
      "Ġkn": 338,
      "Ġcan": 339,
      "ood": 340,
      "Ġhelp": 341,
      "um": 342,
      "one": 343,
      "ark": 344,
      "Ġback": 345,
      "ĠBen": 346,
      "?\"": 347,
      "Ġcl": 348,
      "Ġfun": 349,
      "are": 350,
      "Ġle": 351,
      "Ġno": 352,
      "Ġnamed": 353,
      "Ġsay": 354,
      "ĠTom": 355,
      "Ġsc": 356,
      "oug": 357,
      "Ġloved": 358,
      "op": 359,
      "Ġal": 360,
      "You": 361,
      "elt": 362,
      "side": 363,
      "ĠOne": 364,
      "Ġsmiled": 365,
      "ick": 366,
      "Ġfelt": 367,
      "Ġman": 368,
      "Ġaround": 369,
      "Ġasked": 370,
      "Ġfe": 371,
      "Ġtoy": 372,
      "ĠTimmy": 373,
      "ame": 374,
      "Ġlooked": 375,
      "omet": 376,
      "Ġlike": 377,
      "Ġsome": 378,
      "Ġsee": 379,
      "ure": 380,
      "Ġro": 381,
      "Ġwould": 382,
      "Ġboy": 383,
      "Ġbr": 384,
      "get": 385,
      "Ġbir": 386,
      "ĠW": 387,
      "Ġme": 388,
      "Ġstart": 389,
      "ong": 390,
      "ice": 391,
      "Ġsomet": 392,
      "ss": 393,
      "Ġbird": 394,
      "ade": 395,
      "Ġfa": 396,
      "Ġwor": 397,
      "Ġag": 398,
      "ings": 399,
      "dd": 400,
      "king": 401,
      "Ġwhat": 402,
      "Ġtre": 403,
      "Ã¢": 404,
      "âĤ": 405,
      "âĤ¬": 406,
      "gether": 407,
      "Ġaway": 408,
      "own": 409,
      "Ġmake": 410,
      "Ġstarted": 411,
      "ĠBut": 412,
      "ie": 413,
      "Ġran": 414,
      "ag": 415,
      "ared": 416,
      "oud": 417,
      "Ġmade": 418,
      "Ġsomething": 419,
      "ited": 420,
      "if": 421,
      "Ġtogether": 422,
      ",\"": 423,
      "Ġco": 424,
      "Ġpark": 425,
      "ther": 426,
      "Ġexc": 427,
      "Ġcar": 428,
      "ĠYou": 429,
      "Ġsad": 430,
      "Ġother": 431,
      "Ġfrom": 432,
      "Ġput": 433,
      "Ġnew": 434,
      "ble": 435,
      "Ġpr": 436,
      "Ġsays": 437,
      "Ġla": 438,
      "Ġhome": 439,
      "Ġagain": 440,
      "Ġmu": 441,
      "Ġwhen": 442,
      "Ġhug": 443,
      "ell": 444,
      "Ġthen": 445,
      "Ġdec": 446,
      "Ġwho": 447,
      "est": 448,
      "ep": 449,
      "ĠL": 450,
      "Ġfound": 451,
      "ach": 452,
      "ried": 453,
      "pped": 454,
      "Ġch": 455,
      "Ġgood": 456,
      "ook": 457,
      "Ġfl": 458,
      "ĠE": 459,
      "as": 460,
      "Ġwal": 461,
      "qu": 462,
      "Ġget": 463,
      "ought": 464,
      "ally": 465,
      "Ġplaying": 466,
      "pl": 467,
      "Ġexcited": 468,
      "Ġsw": 469,
      "Ġthings": 470,
      "hat": 471,
      "Ġgot": 472,
      "ous": 473,
      "ided": 474,
      "Ġdecided": 475,
      "uck": 476,
      "Ġevery": 477,
      "Ġliked": 478,
      "ro": 479,
      "ave": 480,
      "Ġcame": 481,
      "ny": 482,
      "Ġbl": 483,
      "ax": 484,
      "Ġone": 485,
      "Ġdown": 486,
      "Ġbec": 487,
      "Ġscared": 488,
      "ouse": 489,
      "ust": 490,
      "Ġv": 491,
      "Ġfind": 492,
      "Ġthan": 493,
      "na": 494,
      "Ġcare": 495,
      "Ġfeel": 496,
      "Ġyour": 497,
      "ĠD": 498,
      "ara": 499,
      "udd": 500,
      "ist": 501,
      "Ġdog": 502,
      "Ġab": 503,
      "Ġdad": 504,
      "ways": 505,
      "Ġke": 506,
      "ĠMom": 507,
      "Ġdidn": 508,
      "Ġalways": 509,
      "ue": 510,
      "Ġgra": 511,
      "ap": 512,
      "Ġgr": 513,
      "arn": 514,
      "fe": 515,
      "us": 516,
      "Ġmommy": 517,
      "Ġtook": 518,
      "our": 519,
      "ĠF": 520,
      "Ġlot": 521,
      "ess": 522,
      "Ġkne": 523,
      "ant": 524,
      "ers": 525,
      "Ġabout": 526,
      "eci": 527,
      "nder": 528,
      "Ġpo": 529,
      "They": 530,
      "Ġmy": 531,
      "Ġlook": 532,
      "Ġoutside": 533,
      "bb": 534,
      "Ġtree": 535,
      "nna": 536,
      "ched": 537,
      "Ġwill": 538,
      "Ġthought": 539,
      "ise": 540,
      "ened": 541,
      "Ġball": 542,
      "Ġtoys": 543,
      "ite": 544,
      "ĠSam": 545,
      "Ġint": 546,
      "ecial": 547,
      "Ġspecial": 548,
      "Ġold": 549,
      "Ġta": 550,
      "Ġmore": 551,
      "Ġlearn": 552,
      "Ġknow": 553,
      "ret": 554,
      "Ġho": 555,
      "Ġknew": 556,
      "Ġtake": 557,
      "ged": 558,
      "Ġlaug": 559,
      "udden": 560,
      "Ġpe": 561,
      "fter": 562,
      "ĠMax": 563,
      "Ġcat": 564,
      "ive": 565,
      "Ġany": 566,
      "uddenly": 567,
      "Ġhow": 568,
      "Ġtr": 569,
      "ma": 570,
      "au": 571,
      "Ġsor": 572,
      "Ġmuch": 573,
      "Ġshow": 574,
      "ia": 575,
      "Ġtw": 576,
      "ish": 577,
      "ven": 578,
      "Ġsl": 579,
      "Ġhouse": 580,
      "But": 581,
      "and": 582,
      "ink": 583,
      "Ġsk": 584,
      "Ġrun": 585,
      "Ġmo": 586,
      "Ġop": 587,
      "Ġinto": 588,
      "Ġsun": 589,
      "ĠEvery": 590,
      "Ġclo": 591,
      "Ġtried": 592,
      "Ġhand": 593,
      "Ġinside": 594,
      "Ġcouldn": 595,
      "Ġtold": 596,
      "Ġproud": 597,
      "Ġen": 598,
      "Ġqu": 599,
      "Ġnever": 600,
      "Ġsorry": 601,
      "Ġgave": 602,
      "Ġwater": 603,
      "Ġor": 604,
      "Ġover": 605,
      "ump": 606,
      "ate": 607,
      "ause": 608,
      "Ġif": 609,
      "ace": 610,
      "by": 611,
      "Ġexpl": 612,
      "Ġheard": 613,
      "ank": 614,
      "Ġeat": 615,
      "ty": 616,
      "other": 617,
      "ion": 618,
      "ge": 619,
      "Ġplayed": 620,
      "dy": 621,
      "Ġroom": 622,
      "Ġthis": 623,
      "etter": 624,
      "Ġpick": 625,
      "Ġeach": 626,
      "Ġstr": 627,
      "Ġgre": 628,
      "here": 629,
      "Ġbecause": 630,
      "ĠSara": 631,
      "Ġpret": 632,
      "Ġjust": 633,
      "Tom": 634,
      "Ġwat": 635,
      "ĠWe": 636,
      "Ġcom": 637,
      "oth": 638,
      "Ġhugged": 639,
      "Ġoff": 640,
      "ak": 641,
      "Ġbox": 642,
      "ile": 643,
      "Ġneed": 644,
      "iz": 645,
      "Ġnice": 646,
      "Ġsmall": 647,
      "Ġlong": 648,
      "Ġjo": 649,
      "Ġbu": 650,
      "ĠAnna": 651,
      "Mom": 652,
      "Ġunt": 653,
      "ough": 654,
      "Ġmany": 655,
      "ort": 656,
      "ving": 657,
      "uc": 658,
      "Ġfo": 659,
      "Ġbear": 660,
      "Ġuntil": 661,
      "ĠJack": 662,
      "sel": 663,
      "ine": 664,
      "imal": 665,
      "Ġanimal": 666,
      "Ġtry": 667,
      "ild": 668,
      "'m": 669,
      "sed": 670,
      "Ġlearned": 671,
      "gry": 672,
      "Ġend": 673,
      "Ġbetter": 674,
      "Ġim": 675,
      "em": 676,
      "Ġcall": 677,
      "urt": 678,
      "Ġkind": 679,
      "Ġad": 680,
      "ft": 681,
      "vent": 682,
      "aut": 683,
      "ĠJo": 684,
      "Ġflow": 685,
      "He": 686,
      "Ġdre": 687,
      "ĠSo": 688,
      "Ġlove": 689,
      "urn": 690,
      "ull": 691,
      "Ġcle": 692,
      "ars": 693,
      "Ġbest": 694,
      "pt": 695,
      "ber": 696,
      "ady": 697,
      "Ġthanked": 698,
      "Ġeven": 699,
      "urp": 700,
      "Ġbeaut": 701,
      "Ġsky": 702,
      "Ġbra": 703,
      "arden": 704,
      "Ġgarden": 705,
      "Ġsn": 706,
      "lly": 707,
      "ĠAnd": 708,
      "Ġfast": 709,
      "ves": 710,
      "ĠHer": 711,
      "Ġcareful": 712,
      "Ġlaughed": 713,
      "Ġlots": 714,
      "self": 715,
      "Ġby": 716,
      "Ġfi": 717,
      "Ġche": 718,
      "lew": 719,
      "ĠMia": 720,
      "Ġjump": 721,
      "Ġdon": 722,
      "iny": 723,
      "Ġfam": 724,
      "Yes": 725,
      "Ġloud": 726,
      "Ġbeauti": 727,
      "Ġway": 728,
      "Ġbeautiful": 729,
      "wn": 730,
      "Ġte": 731,
      "Ġgl": 732,
      "ies": 733,
      "ĠC": 734,
      "Ġstill": 735,
      "Th": 736,
      "Ġra": 737,
      "ĠThen": 738,
      "Ġcome": 739,
      "Ġhard": 740,
      "Åĵ": 741,
      "Ġwo": 742,
      "ĠFrom": 743,
      "hn": 744,
      "ase": 745,
      "Ġlist": 746,
      "Ġstay": 747,
      "Ġanimals": 748,
      "ĠHis": 749,
      "ect": 750,
      "It": 751,
      "ning": 752,
      "Ġhurt": 753,
      "Ġsafe": 754,
      "Ġunder": 755,
      "ast": 756,
      "Ġrem": 757,
      "Ġcol": 758,
      "ct": 759,
      "hes": 760,
      "Ġboth": 761,
      "Ġlived": 762,
      "Ġtwo": 763,
      "Ġcu": 764,
      "ool": 765,
      "ople": 766,
      "ree": 767,
      "ane": 768,
      "Ġfamily": 769,
      "Ġbrave": 770,
      "Ġimp": 771,
      "ĠÃ¢": 772,
      "Ġits": 773,
      "Ġlet": 774,
      "Ġfin": 775,
      "When": 776,
      "Ġflew": 777,
      "Ġbad": 778,
      "ished": 779,
      "ob": 780,
      "Ġkept": 781,
      "urpr": 782,
      "ucy": 783,
      "Tim": 784,
      "Ġpeople": 785,
      "Ġwalked": 786,
      "igh": 787,
      "Ġstor": 788,
      "Ġsurpr": 789,
      "Ġcalled": 790,
      "Ġbook": 791,
      "ĠWhen": 792,
      "fore": 793,
      "be": 794,
      "Ġsoon": 795,
      "led": 796,
      "Ġred": 797,
      "kay": 798,
      "Ġfore": 799,
      "Ġdan": 800,
      "Ġfly": 801,
      "xt": 802,
      "Ġshould": 803,
      "ock": 804,
      "ised": 805,
      "Ġrock": 806,
      "Ġpic": 807,
      "Ġangry": 808,
      "Ġgoing": 809,
      "Ġshare": 810,
      "Ġclean": 811,
      "ĠP": 812,
      "Ġadvent": 813,
      "ummy": 814,
      "Ġopened": 815,
      "Ġexplore": 816,
      "Ġkeep": 817,
      "No": 818,
      "ip": 819,
      "Let": 820,
      "Ġnow": 821,
      "illy": 822,
      "Ġbefore": 823,
      "Ġpretty": 824,
      "âĤ¬â": 825,
      "Ġcon": 826,
      "Ġdoor": 827,
      "Ġcre": 828,
      "Ġwind": 829,
      "Ġdoll": 830,
      "ary": 831,
      "Ġsto": 832,
      "Ġshiny": 833,
      "Ġground": 834,
      "Ġreal": 835,
      "age": 836,
      "Ġdra": 837,
      "Ġnoise": 838,
      "Ġide": 839,
      "dded": 840,
      "Ġfar": 841,
      "Ġfr": 842,
      "ied": 843,
      "Ġturn": 844,
      "Ġfeeling": 845,
      "Ġcry": 846,
      "Ġey": 847,
      "oon": 848,
      "Ġwar": 849,
      "oy": 850,
      "Ġidea": 851,
      "Ġcolor": 852,
      "thing": 853,
      "les": 854,
      "Ġun": 855,
      "Ġnext": 856,
      "Ġpicked": 857,
      "Ġwalking": 858,
      "th": 859,
      "so": 860,
      "Ġwhile": 861,
      "Ħ¢": 862,
      "âĤ¬âĦ¢": 863,
      "imb": 864,
      "Ben": 865,
      "ĠLucy": 866,
      "Ġthr": 867,
      "Ġsmile": 868,
      "Ġma": 869,
      "Ġadventure": 870,
      "Ġclimb": 871,
      "Ġalso": 872,
      "iced": 873,
      "Ġbed": 874,
      "uch": 875,
      "ture": 876,
      "What": 877,
      "ger": 878,
      "ious": 879,
      "That": 880,
      "eet": 881,
      "joy": 882,
      "ff": 883,
      "Ġbeing": 884,
      "ted": 885,
      "Ġwr": 886,
      "ac": 887,
      "Ġclos": 888,
      "Ġnodded": 889,
      "Ġlooking": 890,
      "Ġstopped": 891,
      "Ġdel": 892,
      "Ġhas": 893,
      "kes": 894,
      "Ġdif": 895,
      "Ġpicture": 896,
      "Ġgive": 897,
      "ember": 898,
      "ting": 899,
      "Ġfood": 900,
      "ĠDad": 901,
      "Ġtruck": 902,
      "ĠSuddenly": 903,
      "Ġwait": 904,
      "ĠG": 905,
      "Ġeyes": 906,
      "ught": 907,
      "Ġever": 908,
      "Ġenjoy": 909,
      "Ġnoticed": 910,
      "Ġown": 911,
      "Ġquick": 912,
      "Ġafter": 913,
      "Ġgreat": 914,
      "able": 915,
      "maz": 916,
      "Thank": 917,
      "Ġamaz": 918,
      "aybe": 919,
      "ized": 920,
      "Ġbre": 921,
      "Ġremember": 922,
      "Ġwalk": 923,
      "Suddenly": 924,
      "Ġthink": 925,
      "Ġtow": 926,
      "Ġrain": 927,
      "Ġlisten": 928,
      "Ġrepl": 929,
      "Ġdis": 930,
      "Ġeveryone": 931,
      "Ġblue": 932,
      "Ġforest": 933,
      "Ġvo": 934,
      "Ġbro": 935,
      "Ġfish": 936,
      "Ġapp": 937,
      "irst": 938,
      "ĠSp": 939,
      "Ġimport": 940,
      "Ġhands": 941,
      "bbit": 942,
      "Ġflowers": 943,
      "Ġshowed": 944,
      "gan": 945,
      "Ġnear": 946,
      "She": 947,
      "Ġstrong": 948,
      "Ġac": 949,
      "Ġwork": 950,
      "Ġde": 951,
      "Ġwonder": 952,
      "Ġslide": 953,
      "Ġbright": 954,
      "Ġimportant": 955,
      "bbed": 956,
      "bye": 957,
      "Ġwatch": 958,
      "llow": 959,
      "Ġquickly": 960,
      "Ġshout": 961,
      "Ġrabbit": 962,
      "Ġhead": 963,
      "Ġwatched": 964,
      "Ġright": 965,
      "Ġstore": 966,
      "Ġsound": 967,
      "Ġreplied": 968,
      "Ġtal": 969,
      "fere": 970,
      "day": 971,
      "Ġus": 972,
      "Ġmean": 973,
      "Ġdiffere": 974,
      "Ġsqu": 975,
      "Ġsure": 976,
      "Ġye": 977,
      "ered": 978,
      "So": 979,
      "Ġplace": 980,
      "Ġuse": 981,
      "Ġboat": 982,
      "Ġwhere": 983,
      "Ġmor": 984,
      "ange": 985,
      "Ġbeen": 986,
      "Ġfollow": 987,
      "ath": 988,
      "Ġdress": 989,
      "Ġstick": 990,
      "ĠBob": 991,
      "Ġokay": 992,
      "Ġbecame": 993,
      "Ġtra": 994,
      "Ġgoodbye": 995,
      "Ġchild": 996,
      "lease": 997,
      "ng": 998,
      "Ġask": 999,
      "ĠN": 1000,
      "Ġyell": 1001,
      "Ġcloser": 1002,
      "Ġface": 1003,
      "Ġmag": 1004,
      "Ġhigh": 1005,
      "Ġdifferent": 1006,
      "Ġwarm": 1007,
      "We": 1008,
      "Ġcuri": 1009,
      "Ġvoice": 1010,
      "co": 1011,
      "aught": 1012,
      "Ġcr": 1013,
      "ached": 1014,
      "Ġnight": 1015,
      "Ġforg": 1016,
      "ĠR": 1017,
      "Ġhop": 1018,
      "Ġbel": 1019,
      "Ġour": 1020,
      "ĠSpot": 1021,
      "ired": 1022,
      "leep": 1023,
      "ĠMommy": 1024,
      "Jo": 1025,
      "ĠSue": 1026,
      "Ġtell": 1027,
      "ount": 1028,
      "Ġcurious": 1029,
      "Ġpa": 1030,
      "more": 1031,
      "Ġanymore": 1032,
      "Ġcook": 1033,
      "Ġdoes": 1034,
      "Ġpu": 1035,
      "Ġcake": 1036,
      "Ġthree": 1037,
      "ndma": 1038,
      "Look": 1039,
      "Ġfav": 1040,
      "Ġopen": 1041,
      "itc": 1042,
      "Ġgrabbed": 1043,
      "ĠJohn": 1044,
      "Anna": 1045,
      "Ġfirst": 1046,
      "Sara": 1047,
      "Ġbutter": 1048,
      "Ġcont": 1049,
      "Her": 1050,
      "Ġz": 1051,
      "Ġam": 1052,
      "Ġpain": 1053,
      "imes": 1054,
      "Ġper": 1055,
      "Ġbit": 1056,
      "Ġlea": 1057,
      "Ġhelped": 1058,
      "Ġpull": 1059,
      "orn": 1060,
      "Ġba": 1061,
      "Ġbus": 1062,
      "Ġbirds": 1063,
      "ĠTh": 1064,
      "ĠEveryone": 1065,
      "Ġsweet": 1066,
      "unny": 1067,
      "Ġkid": 1068,
      "Ġfell": 1069,
      "Ġjumped": 1070,
      "After": 1071,
      "Ġhappened": 1072,
      "ila": 1073,
      "Ġonly": 1074,
      "Ġgrass": 1075,
      "isy": 1076,
      "iss": 1077,
      "ĠJane": 1078,
      "Ġmon": 1079,
      "ppy": 1080,
      "Ġbrother": 1081,
      "Ġhere": 1082,
      "itchen": 1083,
      "Ġreached": 1084,
      "Ġkitchen": 1085,
      "Ġsand": 1086,
      "Ġsing": 1087,
      "Ġglad": 1088,
      "Ġflo": 1089,
      "Ġrealized": 1090,
      "Can": 1091,
      "Ġblock": 1092,
      "Ġstory": 1093,
      "nts": 1094,
      "Ġfire": 1095,
      "ĠAs": 1096,
      "Ġru": 1097,
      "Ġdr": 1098,
      "Ġstop": 1099,
      "Ġthrough": 1100,
      "Ġrest": 1101,
      "Ġhaving": 1102,
      "ĠSarah": 1103,
      "Ġate": 1104,
      "Ġyummy": 1105,
      "Ġbeh": 1106,
      "zy": 1107,
      "Ġbegan": 1108,
      "Ġmum": 1109,
      "Ġready": 1110,
      "Ġsees": 1111,
      "where": 1112,
      "Ġreally": 1113,
      "ater": 1114,
      "Ġgame": 1115,
      "Ġtri": 1116,
      "Ġpare": 1117,
      "Ġhimself": 1118,
      "Ġprin": 1119,
      "Ġmess": 1120,
      "Ġsoft": 1121,
      "Ġdraw": 1122,
      "fully": 1123,
      "Ġless": 1124,
      "Ġworld": 1125,
      "Ġshouted": 1126,
      "ather": 1127,
      "Ġtired": 1128,
      "Ġmagic": 1129,
      "Ġunderst": 1130,
      "Ġlady": 1131,
      "olly": 1132,
      "Ġdone": 1133,
      "Ġfavor": 1134,
      "ins": 1135,
      "ĠLet": 1136,
      "Ġthing": 1137,
      "ster": 1138,
      "Ġfavorite": 1139,
      "Ġfill": 1140,
      "Ġmaking": 1141,
      "Ġseen": 1142,
      "Ġwaved": 1143,
      "uff": 1144,
      "Ġused": 1145,
      "Ġfix": 1146,
      "'re": 1147,
      "sh": 1148,
      "Ġhat": 1149,
      "Ġcoming": 1150,
      "ken": 1151,
      "Ġcut": 1152,
      "Ġste": 1153,
      "Ġbutterf": 1154,
      "Ġpond": 1155,
      "Ġtast": 1156,
      "Ġkids": 1157,
      "ĠJoe": 1158,
      "Ġbunny": 1159,
      "Ġdelic": 1160,
      "Ġworry": 1161,
      "Mommy": 1162,
      "Ġtop": 1163,
      "Ġparents": 1164,
      "Ġpart": 1165,
      "Ġduck": 1166,
      "Ġfunny": 1167,
      "Ġwhy": 1168,
      "Ġflower": 1169,
      "Ġpap": 1170,
      "bo": 1171,
      "Ġcatch": 1172,
      "ient": 1173,
      "Ġprom": 1174,
      "Ġmouse": 1175,
      "Ġname": 1176,
      "ĠDo": 1177,
      "ign": 1178,
      "John": 1179,
      "Ġpretend": 1180,
      "Ġswim": 1181,
      "mer": 1182,
      "iver": 1183,
      "air": 1184,
      "akes": 1185,
      "Ġanother": 1186,
      "rel": 1187,
      "ĠThat": 1188,
      "Ġfull": 1189,
      "Ġtouch": 1190,
      "ation": 1191,
      "As": 1192,
      "Ġpus": 1193,
      "Wow": 1194,
      "Ġcool": 1195,
      "Ġworked": 1196,
      "Timmy": 1197,
      "Ġlight": 1198,
      "aisy": 1199,
      "Ġsurprise": 1200,
      "Ġfro": 1201,
      "oney": 1202,
      "Ġlooks": 1203,
      "eddy": 1204,
      "Ġcars": 1205,
      "ĠCan": 1206,
      "Ġcried": 1207,
      "Ġgi": 1208,
      "Ġcra": 1209,
      "Ġhair": 1210,
      "Ġhopped": 1211,
      "Ġtrees": 1212,
      "Ġdro": 1213,
      "ards": 1214,
      "Ġgreen": 1215,
      "Ġspot": 1216,
      "Ġsmell": 1217,
      "Ġremembered": 1218,
      "Don": 1219,
      "Ġyears": 1220,
      "Ġdin": 1221,
      "Ġbag": 1222,
      "Ġlesson": 1223,
      "Ġrunning": 1224,
      "Ġsho": 1225,
      "Ġthank": 1226,
      "Ġ-": 1227,
      "Ġset": 1228,
      "ued": 1229,
      "ely": 1230,
      "andy": 1231,
      "hy": 1232,
      "Ġslow": 1233,
      "Ġread": 1234,
      "Ġwood": 1235,
      "Ġbehind": 1236,
      "Ġdark": 1237,
      "Ġsleep": 1238,
      "Ġhappily": 1239,
      "ssed": 1240,
      "Ġdri": 1241,
      "Ġneeded": 1242,
      "Ġwindow": 1243,
      "Ġsat": 1244,
      "Ġperf": 1245,
      "Ġcarefully": 1246,
      "Ġhold": 1247,
      "Ġfloor": 1248,
      "\".": 1249,
      "Ġyellow": 1250,
      "ĠIn": 1251,
      "Ġbow": 1252,
      "Ġcla": 1253,
      "Sam": 1254,
      "ul": 1255,
      "ren": 1256,
      "Ġfinished": 1257,
      "Ġdoing": 1258,
      "Ġwished": 1259,
      "Ġsurprised": 1260,
      "Ġcold": 1261,
      "Ġtall": 1262,
      "Ġhole": 1263,
      "aring": 1264,
      "Ġpaper": 1265,
      "ike": 1266,
      "Ġmove": 1267,
      "Ġenjoyed": 1268,
      "Ġbuy": 1269,
      "Ġheld": 1270,
      "Ġbutterfly": 1271,
      "Ġair": 1272,
      "inally": 1273,
      "Ġlost": 1274,
      "ĠAfter": 1275,
      "Ġblocks": 1276,
      "Ġlaugh": 1277,
      "uit": 1278,
      "Ġanything": 1279,
      "Ġdream": 1280,
      "Ġleft": 1281,
      "Ġice": 1282,
      "Ġarri": 1283,
      "Ġswing": 1284,
      "Ġdelicious": 1285,
      "Ġrel": 1286,
      "Ġlikes": 1287,
      "ens": 1288,
      "Ġherself": 1289,
      "Ġlion": 1290,
      "Ġfair": 1291,
      "Ġfrog": 1292,
      "ined": 1293,
      "Ġwrong": 1294,
      "Ġfollowed": 1295,
      "Ġhill": 1296,
      "Ġpre": 1297,
      "Ġchildren": 1298,
      "Ġcontin": 1299,
      "Ġhun": 1300,
      "ield": 1301,
      "Ġclose": 1302,
      "reed": 1303,
      "ream": 1304,
      "Ġfriendly": 1305,
      "Ġhid": 1306,
      "cess": 1307,
      "Ġforgot": 1308,
      "Ġhot": 1309,
      "Ġcast": 1310,
      "Ġable": 1311,
      "Ġhear": 1312,
      "Ġarrived": 1313,
      "lf": 1314,
      "Ġdir": 1315,
      "ĠSally": 1316,
      "Ġbuild": 1317,
      "Ġwonderful": 1318,
      "Ġbaby": 1319,
      "Ġfilled": 1320,
      "Ġarm": 1321,
      "Ġtight": 1322,
      "ĠBenny": 1323,
      "Ġunderstand": 1324,
      "Ġmight": 1325,
      "Ġgone": 1326,
      "asure": 1327,
      "Ġtable": 1328,
      "Ġbug": 1329,
      "Ġsnow": 1330,
      "Hell": 1331,
      "Hello": 1332,
      "Ġel": 1333,
      "Ġcreat": 1334,
      "Then": 1335,
      "Ġbooks": 1336,
      "Ġmat": 1337,
      "ds": 1338,
      "Ġelse": 1339,
      "ner": 1340,
      "Ġgent": 1341,
      "ich": 1342,
      "Ġcolors": 1343,
      "Ġcontinued": 1344,
      "Ġyes": 1345,
      "ĠEm": 1346,
      "ĠDaisy": 1347,
      "Jack": 1348,
      "irrel": 1349,
      "ey": 1350,
      "ĠNow": 1351,
      "Ġsong": 1352,
      "ross": 1353,
      "Ġstayed": 1354,
      "Ġplease": 1355,
      "Ġbroken": 1356,
      "Ġsomeone": 1357,
      "Ġleaves": 1358,
      "ĠThere": 1359,
      "av": 1360,
      "Ġwall": 1361,
      "Ġpat": 1362,
      "Ġfinally": 1363,
      "Ġenough": 1364,
      "From": 1365,
      "room": 1366,
      "Ġmorning": 1367,
      "Ġsquirrel": 1368,
      "Ġgetting": 1369,
      "Ġamazing": 1370,
      "Ġagreed": 1371,
      "Ġcount": 1372,
      "Ġvis": 1373,
      "sp": 1374,
      "Ġscary": 1375,
      "ask": 1376,
      "ash": 1377,
      "Ġbreak": 1378,
      "gon": 1379,
      "Ġpink": 1380,
      "Ġcomp": 1381,
      "Ġpoin": 1382,
      "Ġperfect": 1383,
      "'ll": 1384,
      "Ġwants": 1385,
      "Ġmoment": 1386,
      "At": 1387,
      "icy": 1388,
      "Ġcastle": 1389,
      "Ġgrandma": 1390,
      "Ġpi": 1391,
      "Ġtrying": 1392,
      "Ġfew": 1393,
      "Ġju": 1394,
      "ĠBilly": 1395,
      "row": 1396,
      "ĠLila": 1397,
      "oom": 1398,
      "Ġmar": 1399,
      "ance": 1400,
      "Ġmother": 1401,
      "Ġothers": 1402,
      "Ġturned": 1403,
      "ama": 1404,
      "Ġpuppy": 1405,
      "ries": 1406,
      "Ġdinner": 1407,
      "rot": 1408,
      "Ġhungry": 1409,
      "oup": 1410,
      "ced": 1411,
      "Ġbeach": 1412,
      "OK": 1413,
      "Ġfight": 1414,
      "Ġwasn": 1415,
      "Ġwet": 1416,
      "Ġdaddy": 1417,
      "ĠK": 1418,
      "Ġmus": 1419,
      "Ġsometimes": 1420,
      "Ġjoy": 1421,
      "Ġcream": 1422,
      "Ġmet": 1423,
      "Ġstrange": 1424,
      "Ġsail": 1425,
      "Ġclimbed": 1426,
      "ĠThis": 1427,
      "Ġroll": 1428,
      "oring": 1429,
      "ons": 1430,
      "ence": 1431,
      "Ġpictures": 1432,
      "Ġbrought": 1433,
      "red": 1434,
      "Ġfur": 1435,
      "Ġwhite": 1436,
      "Ġfall": 1437,
      "Ġlistened": 1438,
      "uffy": 1439,
      "man": 1440,
      "ee": 1441,
      "wl": 1442,
      "Ġspl": 1443,
      "Ġcookies": 1444,
      "Ġspark": 1445,
      "Ġballoon": 1446,
      "Ġclot": 1447,
      "ĠTommy": 1448,
      "Ġsear": 1449,
      "ated": 1450,
      "Ġclothes": 1451,
      "His": 1452,
      "ucky": 1453,
      "Ġeverything": 1454,
      "der": 1455,
      "ever": 1456,
      "ĠTo": 1457,
      "amp": 1458,
      "This": 1459,
      "Ġtalk": 1460,
      "ĠWhat": 1461,
      "Ġamazed": 1462,
      "Ġsmiles": 1463,
      "Ġwoods": 1464,
      "ĠMaybe": 1465,
      "Ġdeep": 1466,
      "Ġride": 1467,
      "Ġtail": 1468,
      "ĠJen": 1469,
      "Ġpol": 1470,
      "Ġthre": 1471,
      "pping": 1472,
      "Ġmakes": 1473,
      "Ġwaited": 1474,
      "Ġalone": 1475,
      "ĠGra": 1476,
      "ister": 1477,
      "eter": 1478,
      "ower": 1479,
      "os": 1480,
      "Ġsit": 1481,
      "key": 1482,
      "Ġgrow": 1483,
      "Ġpie": 1484,
      "Ġpet": 1485,
      "Ġvisit": 1486,
      "elc": 1487,
      "ctor": 1488,
      "med": 1489,
      "Ġlake": 1490,
      "Ġwon": 1491,
      "Ġdanger": 1492,
      "Ġmusic": 1493,
      "ott": 1494,
      "me": 1495,
      "Ġplan": 1496,
      "Ġtreat": 1497,
      "Ġleave": 1498,
      "zz": 1499,
      "Ġpulled": 1500,
      "Ġside": 1501,
      "Oh": 1502,
      "ope": 1503,
      "Ġsilly": 1504,
      "Ġcloud": 1505,
      "Ġland": 1506,
      "Ġfox": 1507,
      "Ġflying": 1508,
      "Ġfield": 1509,
      "ugg": 1510,
      "Ġhide": 1511,
      "Ġtowards": 1512,
      "thy": 1513,
      "ang": 1514,
      "Ġpromised": 1515,
      "Ġbelie": 1516,
      "Ġteddy": 1517,
      "Max": 1518,
      "ames": 1519,
      "ĠAmy": 1520,
      "cket": 1521,
      "Ġshared": 1522,
      "Ġsec": 1523,
      "ained": 1524,
      "Ġbigger": 1525,
      "ix": 1526,
      "orm": 1527,
      "Ġasks": 1528,
      "eces": 1529,
      "igg": 1530,
      "Ġowner": 1531,
      "Ġpieces": 1532,
      "gs": 1533,
      "ually": 1534,
      "Ġbran": 1535,
      "Ġslowly": 1536,
      "Ġworried": 1537,
      "Ġmoney": 1538,
      "ĠAll": 1539,
      "Ġcup": 1540,
      "Ġblank": 1541,
      "Ġgu": 1542,
      "iet": 1543,
      "Ġsuch": 1544,
      "Ġmoral": 1545,
      "Ġem": 1546,
      "Ġsister": 1547,
      "Ġtreasure": 1548,
      "ling": 1549,
      "Ġparty": 1550,
      "Ġmagical": 1551,
      "Ġpen": 1552,
      "Ġrace": 1553,
      "Ġnap": 1554,
      "fort": 1555,
      "cle": 1556,
      "Ġshap": 1557,
      "Ġgrate": 1558,
      "Ġblanket": 1559,
      "ises": 1560,
      "avy": 1561,
      "ased": 1562,
      "Ġfaster": 1563,
      "Ġplant": 1564,
      "Ġve": 1565,
      "Ġcolorful": 1566,
      "ze": 1567,
      "ĠJim": 1568,
      "Ġdance": 1569,
      "Ġwear": 1570,
      "Ġreach": 1571,
      "Ġmust": 1572,
      "ire": 1573,
      "sw": 1574,
      "Ġgrateful": 1575,
      "Ġriver": 1576,
      "Ġquiet": 1577,
      "Ġansw": 1578,
      "Ġthinks": 1579,
      "Ġmost": 1580,
      "unch": 1581,
      "Ġgif": 1582,
      "Ġliving": 1583,
      "ol": 1584,
      "Ġjob": 1585,
      "Maybe": 1586,
      "Ġcho": 1587,
      "Ġeverywhere": 1588,
      "less": 1589,
      "Ġsnack": 1590,
      "Ġpaint": 1591,
      "app": 1592,
      "Ġbott": 1593,
      "Ġele": 1594,
      "Okay": 1595,
      "Ġpro": 1596,
      "Ġruns": 1597,
      "Ġcandy": 1598,
      "Ġpot": 1599,
      "ph": 1600,
      "up": 1601,
      "Ġmonster": 1602,
      "Ġwelc": 1603,
      "ĠFl": 1604,
      "Ġjoin": 1605,
      "Ġdragon": 1606,
      "Ġje": 1607,
      "set": 1608,
      "Ġhelping": 1609,
      "ming": 1610,
      "outh": 1611,
      "Ġbar": 1612,
      "Ġbike": 1613,
      "Ġacross": 1614,
      "Ġfarmer": 1615,
      "Ġdolls": 1616,
      "Ġstepped": 1617,
      "Ġatt": 1618,
      "Ġmouth": 1619,
      "Ġblack": 1620,
      "bble": 1621,
      "Ġcarrot": 1622,
      "Ġtrain": 1623,
      "ipped": 1624,
      "ĠMolly": 1625,
      "Ġbroke": 1626,
      "ĠJill": 1627,
      "ere": 1628,
      "Ġprincess": 1629,
      "Ġwouldn": 1630,
      "Ġhig": 1631,
      "Ġsame": 1632,
      "ident": 1633,
      "Ġsmart": 1634,
      "Ġdangerous": 1635,
      "Ġscream": 1636,
      "Ġwin": 1637,
      "Ġdisapp": 1638,
      "Ġheal": 1639,
      "Ġspr": 1640,
      "Ġacc": 1641,
      "eared": 1642,
      "Ġheavy": 1643,
      "Ġcrying": 1644,
      "ear": 1645,
      "Ġmix": 1646,
      "ored": 1647,
      "Ġsign": 1648,
      "Ġbee": 1649,
      "Sure": 1650,
      "Ġbowl": 1651,
      "Ġbelieve": 1652,
      "Ġclosed": 1653,
      "Ġwords": 1654,
      "Ġdoctor": 1655,
      "Ġdirty": 1656,
      "ĠDaddy": 1657,
      "Ġstre": 1658,
      "Ġteac": 1659,
      "Ġcoll": 1660,
      "iting": 1661,
      "Ġstuck": 1662,
      "Ġfruit": 1663,
      "Ġthrew": 1664,
      "Why": 1665,
      "Ġbutt": 1666,
      "Ġeating": 1667,
      "Ġbite": 1668,
      "chool": 1669,
      "Ġtown": 1670,
      "Ġmonkey": 1671,
      "Ġbath": 1672,
      "Ġbuck": 1673,
      "ĠMr": 1674,
      "Ġhigher": 1675,
      "Ġheart": 1676,
      "Ġcheered": 1677,
      "Ġtwins": 1678,
      "de": 1679,
      "br": 1680,
      "ord": 1681,
      "Ġneigh": 1682,
      "Ġschool": 1683,
      "Ġstand": 1684,
      "ventually": 1685,
      "Ġfairy": 1686,
      "Ġpers": 1687,
      "Ġclapped": 1688,
      "Ġneighb": 1689,
      "Ġpack": 1690,
      "umb": 1691,
      "Ġsuddenly": 1692,
      "cked": 1693,
      "Ġtower": 1694,
      "Hi": 1695,
      "asket": 1696,
      "Ġteacher": 1697,
      "Ġhit": 1698,
      "Ġlonger": 1699,
      "Ġpast": 1700,
      "Ġwithout": 1701,
      "Ġbasket": 1702,
      "Ġdry": 1703,
      "ract": 1704,
      "ier": 1705,
      "Ġaccident": 1706,
      "Ġmin": 1707,
      "Ġfree": 1708,
      "Ġcray": 1709,
      "Ġtoday": 1710,
      "Ġdrove": 1711,
      "Ġhoped": 1712,
      "Ġwings": 1713,
      "Mia": 1714,
      "Ġsmo": 1715,
      "Ġpushed": 1716,
      "Ġyard": 1717,
      "Ġgentle": 1718,
      "Finally": 1719,
      "Ġcour": 1720,
      "ney": 1721,
      "cy": 1722,
      "Ġfeels": 1723,
      "Ġpocket": 1724,
      "ass": 1725,
      "ors": 1726,
      "Ġhappen": 1727,
      "Ġjour": 1728,
      "Ġforget": 1729,
      "Ġfence": 1730,
      "Ġbrown": 1731,
      "Ġchair": 1732,
      "Ġlon": 1733,
      "orrow": 1734,
      "ead": 1735,
      "Ġgames": 1736,
      "Ġalong": 1737,
      "vel": 1738,
      "Ġswings": 1739,
      "Ġsea": 1740,
      "Ġcorn": 1741,
      "Ġcourse": 1742,
      "Ġsang": 1743,
      "Ġexplained": 1744,
      "ts": 1745,
      "Ġlonely": 1746,
      "Ġadventures": 1747,
      "Ġpiece": 1748,
      "Ġinst": 1749,
      "Ġsinging": 1750,
      "Ġsecret": 1751,
      "ment": 1752,
      "ountain": 1753,
      "Ġwelcome": 1754,
      "Ġupset": 1755,
      "Ġowl": 1756,
      "issed": 1757,
      "Ġswam": 1758,
      "Ġnoises": 1759,
      "Ġbring": 1760,
      "Ġmoved": 1761,
      "Ġapple": 1762,
      "Ġshoes": 1763,
      "Ġyoung": 1764,
      "Ġstories": 1765,
      "yard": 1766,
      "ward": 1767,
      "Ġtrou": 1768,
      "Ġplac": 1769,
      "Ġbackyard": 1770,
      "Ġstars": 1771,
      "Ġtaking": 1772,
      "ho": 1773,
      "Ġexploring": 1774,
      "ĠEmma": 1775,
      "ible": 1776,
      "Ġdist": 1777,
      "itting": 1778,
      "phant": 1779,
      "Ġturns": 1780,
      "Ġlate": 1781,
      "Ġthrow": 1782,
      "Ġrocks": 1783,
      "Ġdropped": 1784,
      "Ġseemed": 1785,
      "oun": 1786,
      "Ġtiny": 1787,
      "Ġexp": 1788,
      "Ġwhe": 1789,
      "ĠMary": 1790,
      "fused": 1791,
      "Ġlunch": 1792,
      "Ġelephant": 1793,
      "ches": 1794,
      "Ġbucket": 1795,
      "Ġneck": 1796,
      "Ġsoup": 1797,
      "Ġbelong": 1798,
      "Ġnaught": 1799,
      "bby": 1800,
      "Ġshop": 1801,
      "Ġjar": 1802,
      "Ġnaughty": 1803,
      "Ġshook": 1804,
      "bow": 1805,
      "Ġwise": 1806,
      "Ġcaught": 1807,
      "Ġca": 1808,
      "Ġrelie": 1809,
      "Ġmail": 1810,
      "Ġes": 1811,
      "ush": 1812,
      "Ġnearby": 1813,
      "ĠFluffy": 1814,
      "ek": 1815,
      "Ġhugs": 1816,
      "Ġthough": 1817,
      "Ġwoke": 1818,
      "Ġdes": 1819,
      "ocked": 1820,
      "Ġwish": 1821,
      "Ġwell": 1822,
      "Ġ3": 1823,
      "Ġdrink": 1824,
      "Ġstreet": 1825,
      "ape": 1826,
      "Ġorange": 1827,
      "Ġph": 1828,
      "Ġyear": 1829,
      "Ġben": 1830,
      "ions": 1831,
      "Ġbusy": 1832,
      "llo": 1833,
      "Ġpig": 1834,
      "ces": 1835,
      "Ġkey": 1836,
      "Ġsu": 1837,
      "adow": 1838,
      "Lila": 1839,
      "Ġmiss": 1840,
      "Ġinv": 1841,
      "Ġcou": 1842,
      "sy": 1843,
      "cing": 1844,
      "Ġrainbow": 1845,
      "Ġbat": 1846,
      "Ġpurp": 1847,
      "ung": 1848,
      "ining": 1849,
      "Ġstar": 1850,
      "Ġtom": 1851,
      "Ġjuice": 1852,
      "aughter": 1853,
      "col": 1854,
      "ity": 1855,
      "Ġhuge": 1856,
      "ĠGrandma": 1857,
      "Ġob": 1858,
      "Ġforever": 1859,
      "ĠInside": 1860,
      "Ġshapes": 1861,
      "Ġbranch": 1862,
      "to": 1863,
      "ours": 1864,
      "Ġfarm": 1865,
      "Ġcow": 1866,
      "Do": 1867,
      "Ġarms": 1868,
      "weet": 1869,
      "vered": 1870,
      "Ġaf": 1871,
      "idge": 1872,
      "ĠFinally": 1873,
      "Ġnest": 1874,
      "Ġstu": 1875,
      "cer": 1876,
      "And": 1877,
      "Ġmark": 1878,
      "Ġpurple": 1879,
      "Ġnose": 1880,
      "Ġsick": 1881,
      "Ġround": 1882,
      "shine": 1883,
      "Ġrelieved": 1884,
      "Ġpeace": 1885,
      "Ġcarry": 1886,
      "Ġwondered": 1887,
      "Ġfit": 1888,
      "Ġdaughter": 1889,
      "ittens": 1890,
      "Ġlife": 1891,
      "Ġwhist": 1892,
      "Ġswimming": 1893,
      "Ġresp": 1894,
      "Ġboun": 1895,
      "Ġgift": 1896,
      "Ġnothing": 1897,
      "ail": 1898,
      "Ġexciting": 1899,
      "Ġsitting": 1900,
      "Ġcir": 1901,
      "ĠThank": 1902,
      "pper": 1903,
      "Ġmine": 1904,
      "Ġsunshine": 1905,
      "Ġret": 1906,
      "raid": 1907,
      "Ġmad": 1908,
      "Ġafraid": 1909,
      "Ġpatient": 1910,
      "Ġkite": 1911,
      "Ġjourney": 1912,
      "Ġmil": 1913,
      "gg": 1914,
      "itch": 1915,
      "Ġletter": 1916,
      "fish": 1917,
      "Ġcreature": 1918,
      "ose": 1919,
      "sting": 1920,
      "Ġonto": 1921,
      "thday": 1922,
      "uched": 1923,
      "Ġtouched": 1924,
      "Ġdays": 1925,
      "Ġhello": 1926,
      "ese": 1927,
      "Ġreturn": 1928,
      "ĠO": 1929,
      "Ġdisco": 1930,
      "let": 1931,
      "ĠSoon": 1932,
      "Ġtakes": 1933,
      "Ġdriver": 1934,
      "Ġaccidentally": 1935,
      "Ġintere": 1936,
      "Ġking": 1937,
      "Ġlaughing": 1938,
      "Ġspoon": 1939,
      "Ġcute": 1940,
      "Ġfan": 1941,
      "Ġpower": 1942,
      "itten": 1943,
      "ĠSammy": 1944,
      "Ġholding": 1945,
      "Ġsounds": 1946,
      "Ġcomes": 1947,
      "Ġlift": 1948,
      "Ġcollect": 1949,
      "Ġcoat": 1950,
      "Ġcave": 1951,
      "Ġcomfort": 1952,
      "Ġgigg": 1953,
      "Ġband": 1954,
      "ness": 1955,
      "Later": 1956,
      "Ġshell": 1957,
      "Ġsunny": 1958,
      "ĠMama": 1959,
      "sc": 1960,
      "board": 1961,
      "Ġinstead": 1962,
      "Ġinc": 1963,
      "Ġcozy": 1964,
      "Ġwra": 1965,
      "irt": 1966,
      "Ġfing": 1967,
      "Ġact": 1968,
      "Ġear": 1969,
      "Ġbench": 1970,
      "Ġbirthday": 1971,
      "Ġce": 1972,
      "Ġhor": 1973,
      "Ġsearched": 1974,
      "Ġpointed": 1975,
      "Ġmist": 1976,
      "Ġgrab": 1977,
      "ped": 1978,
      "Ġlucky": 1979,
      "Ġsmiling": 1980,
      "Ġimag": 1981,
      "Ġpromise": 1982,
      "Ġgather": 1983,
      "og": 1984,
      "Ġbought": 1985,
      "Ġeas": 1986,
      "ten": 1987,
      "alm": 1988,
      "Ġwatching": 1989,
      "round": 1990,
      "Ġspo": 1991,
      "Ġmilk": 1992,
      "Ġsandw": 1993,
      "ize": 1994,
      "Ġpres": 1995,
      "Ġpudd": 1996,
      "Ġstorm": 1997,
      "Of": 1998,
      "Ġkick": 1999,
      "Ġanyone": 2000,
      "Ġwide": 2001,
      "Ġtasty": 2002,
      "ball": 2003,
      "oman": 2004,
      "Ġcheese": 2005,
      "Ġlater": 2006,
      "ove": 2007,
      "gged": 2008,
      "Ġspin": 2009,
      "blem": 2010,
      "unt": 2011,
      "Ġhope": 2012,
      "Ġwoman": 2013,
      "Hey": 2014,
      "Ġtalked": 2015,
      "Ġproblem": 2016,
      "eth": 2017,
      "Bob": 2018,
      "Ġent": 2019,
      "Ġroad": 2020,
      "arp": 2021,
      "Ġbread": 2022,
      "Tommy": 2023,
      "Ġhealthy": 2024,
      "Ġshining": 2025,
      "Ġsuc": 2026,
      "Ġadm": 2027,
      "Ġtrouble": 2028,
      "Ġbutton": 2029,
      "Ġzoom": 2030,
      "Ġsharp": 2031,
      "ub": 2032,
      "Ġperson": 2033,
      "Ġspid": 2034,
      "Ġbottle": 2035,
      "aur": 2036,
      "Ġinteresting": 2037,
      "Ġplane": 2038,
      "Ġrope": 2039,
      "Ġgives": 2040,
      "Ġbush": 2041,
      "els": 2042,
      "Ġlovely": 2043,
      "ĠTweet": 2044,
      "Ġsaf": 2045,
      "Ġclouds": 2046,
      "ĠCome": 2047,
      "Ġpresent": 2048,
      "owed": 2049,
      "Ġpract": 2050,
      "Ġhoney": 2051,
      "ĠJimmy": 2052,
      "Ġmatter": 2053,
      "Ġquest": 2054,
      "Ġsmelled": 2055,
      "Ġclever": 2056,
      "isa": 2057,
      "Ġwhole": 2058,
      "Ġmyster": 2059,
      "Ġvill": 2060,
      "ĠWith": 2061,
      "Ġwhich": 2062,
      "Ġap": 2063,
      "ont": 2064,
      "Ġducks": 2065,
      "Ġspotted": 2066,
      "Ġprot": 2067,
      "Ġrolled": 2068,
      "ndp": 2069,
      "Ġmeet": 2070,
      "Ġcheer": 2071,
      "Ġkiss": 2072,
      "epend": 2073,
      "Ġsur": 2074,
      "Ġapples": 2075,
      "Ġappeared": 2076,
      "Ġhon": 2077,
      "Ġtasted": 2078,
      "Ġpath": 2079,
      "Ġgiant": 2080,
      "Ġcrayons": 2081,
      "Ġhorse": 2082,
      "Ġpop": 2083,
      "Ġorgan": 2084,
      "Ġfront": 2085,
      "Ġzoo": 2086,
      "Ġprotect": 2087,
      "ond": 2088,
      "Ġpile": 2089,
      "cean": 2090,
      "Ġputs": 2091,
      "Ġocean": 2092,
      "oose": 2093,
      "een": 2094,
      "Ġpar": 2095,
      "Ġdanced": 2096,
      "lla": 2097,
      "ching": 2098,
      "Ġlay": 2099,
      "Ġsnowman": 2100,
      "Ġfeather": 2101,
      "ale": 2102,
      "Lucy": 2103,
      "Ġmach": 2104,
      "erly": 2105,
      "Ġtrip": 2106,
      "Every": 2107,
      "Ġthin": 2108,
      "Ġshr": 2109,
      "Ġtun": 2110,
      "amed": 2111,
      "Ġeag": 2112,
      "Ġneighbor": 2113,
      "Ġpuzz": 2114,
      "ÅĵI": 2115,
      "Ġloves": 2116,
      "Ġplaces": 2117,
      "Good": 2118,
      "Molly": 2119,
      "Ġdi": 2120,
      "eb": 2121,
      "izz": 2122,
      "Ġsack": 2123,
      "Ġwearing": 2124,
      "Ġasleep": 2125,
      "Ġseat": 2126,
      "Jim": 2127,
      "In": 2128,
      "Ġmud": 2129,
      "nic": 2130,
      "Ġimpre": 2131,
      "Ġspent": 2132,
      "Ġminut": 2133,
      "ular": 2134,
      "Ġwild": 2135,
      "Ġmed": 2136,
      "Ġsplas": 2137,
      "Ġanswer": 2138,
      "Just": 2139,
      "Ġpill": 2140,
      "itty": 2141,
      "Ġpicnic": 2142,
      "Ġemb": 2143,
      "Ġval": 2144,
      "nn": 2145,
      "ometimes": 2146,
      "Ġcorner": 2147,
      "la": 2148,
      "Ġsnake": 2149,
      "Ġfoot": 2150,
      "Ġbuilding": 2151,
      "Ġscreamed": 2152,
      "Ġslid": 2153,
      "ert": 2154,
      "ndpa": 2155,
      "Ġmind": 2156,
      "Ġsupp": 2157,
      "Ġrespect": 2158,
      "cks": 2159,
      "Ġdirt": 2160,
      "Ġlad": 2161,
      "ĠMittens": 2162,
      "Ġgently": 2163,
      "arge": 2164,
      "Ġoven": 2165,
      "Come": 2166,
      "ĠEmily": 2167,
      "Ġsal": 2168,
      "umber": 2169,
      "St": 2170,
      "hile": 2171,
      "Ġmountain": 2172,
      "Ġconfused": 2173,
      "Ġspider": 2174,
      "Ġbark": 2175,
      "ones": 2176,
      "Ġlive": 2177,
      "Ġdelight": 2178,
      "Ġwrite": 2179,
      "Ġcart": 2180,
      "Ġcard": 2181,
      "Ġworm": 2182,
      "Ġpass": 2183,
      "Ġremind": 2184,
      "Ġfurry": 2185,
      "Ġign": 2186,
      "Ġembar": 2187,
      "Ġembarra": 2188,
      "Ġwhenever": 2189,
      "Ġeventually": 2190,
      "Ġhelpful": 2191,
      "lex": 2192,
      "Ġtid": 2193,
      "Ġcookie": 2194,
      "Ġphone": 2195,
      "Ġser": 2196,
      "Ġbell": 2197,
      "Ġcouch": 2198,
      "Soon": 2199,
      "Ġfeet": 2200,
      "Ġfaces": 2201,
      "Ġrec": 2202,
      "Ġtalking": 2203,
      "Mum": 2204,
      "Ġgoes": 2205,
      "Ġladder": 2206,
      "Ġlast": 2207,
      "Ġcoin": 2208,
      "Ġteach": 2209,
      "Ġchick": 2210,
      "ex": 2211,
      "Ġblew": 2212,
      "unk": 2213,
      "Ġwave": 2214,
      "Ġsmooth": 2215,
      "Ġring": 2216,
      "ĠSt": 2217,
      "mo": 2218,
      "Ġpaw": 2219,
      "bbles": 2220,
      "als": 2221,
      "Ġban": 2222,
      "Ġpan": 2223,
      "Ġcolour": 2224,
      "ĠGo": 2225,
      "Ġpretended": 2226,
      "read": 2227,
      "Ġcalm": 2228,
      "Ġrob": 2229,
      "Ġtries": 2230,
      "Ġshy": 2231,
      "Ġdrive": 2232,
      "Ġpool": 2233,
      "ife": 2234,
      "Ġlarge": 2235,
      "Ġmachine": 2236,
      "Ġstret": 2237,
      "Ġtool": 2238,
      "Ġwaiting": 2239,
      "Ġforgive": 2240,
      "Ġhiding": 2241,
      "Ġspread": 2242,
      "Ġspray": 2243,
      "ĠEverywhere": 2244,
      "Ġfinish": 2245,
      "Ġash": 2246,
      "lebr": 2247,
      "Ġcoo": 2248,
      "ato": 2249,
      "Ġchocol": 2250,
      "Ġpush": 2251,
      "Ġvillage": 2252,
      "Ġcelebr": 2253,
      "Ġpour": 2254,
      "Ġsel": 2255,
      "Ġstra": 2256,
      "Ġtreats": 2257,
      "Ġtomorrow": 2258,
      "Ġant": 2259,
      "Ġple": 2260,
      "ĠHow": 2261,
      "Ġfixed": 2262,
      "Ġfighting": 2263,
      "ĠJenny": 2264,
      "Ġsol": 2265,
      "Ġcloth": 2266,
      "Ġhum": 2267,
      "Ġteeth": 2268,
      "Ġchased": 2269,
      "Ġrude": 2270,
      "Ġkitten": 2271,
      "ĠAl": 2272,
      "Ġtidy": 2273,
      "Ġrobot": 2274,
      "old": 2275,
      "urse": 2276,
      "Ġbanan": 2277,
      "Ġforward": 2278,
      "oph": 2279,
      "Ġrep": 2280,
      "Ġcann": 2281,
      "Ġemp": 2282,
      "Ġembarrassed": 2283,
      "Ġknee": 2284,
      "ĠCh": 2285,
      "Ġsongs": 2286,
      "Ġshirt": 2287,
      "Ġbarked": 2288,
      "Ġempty": 2289,
      "Ġrocket": 2290,
      "ator": 2291,
      "ighed": 2292,
      "Ġspe": 2293,
      "Ġfold": 2294,
      "Ġcarrots": 2295,
      "Ġpuddle": 2296,
      "inted": 2297,
      "aul": 2298,
      "Ġpeaceful": 2299,
      "ĠJust": 2300,
      "Ġbugs": 2301,
      "Ġwhistle": 2302,
      "Ġstep": 2303,
      "Ġleaf": 2304,
      "Ġtightly": 2305,
      "Ġcannot": 2306,
      "Ġtaste": 2307,
      "Ġwore": 2308,
      "Ġgen": 2309,
      "ungle": 2310,
      "Ġnet": 2311,
      "Ġstring": 2312,
      "Ġselfish": 2313,
      "getable": 2314,
      "Ġstir": 2315,
      "ult": 2316,
      "Ġgrew": 2317,
      "Ġcreative": 2318,
      "Ġjungle": 2319,
      "Ġvegetable": 2320,
      "Ġmeadow": 2321,
      "Ġsave": 2322,
      "iger": 2323,
      "Ġstone": 2324,
      "Ġchocolate": 2325,
      "ĠSometimes": 2326,
      "ĠJake": 2327,
      "box": 2328,
      "arm": 2329,
      "Ġtrust": 2330,
      "Ġwip": 2331,
      "My": 2332,
      "Ġcrab": 2333,
      "Ġplate": 2334,
      "Ġsparkly": 2335,
      "den": 2336,
      "Ġdisappo": 2337,
      "Ġtea": 2338,
      "Ġdeter": 2339,
      "umpy": 2340,
      "dge": 2341,
      "Ġdeterm": 2342,
      "ground": 2343,
      "ĠLisa": 2344,
      "Ġspicy": 2345,
      "Ġknocked": 2346,
      "Ġ'": 2347,
      "Ġsheep": 2348,
      "Now": 2349,
      "Ġneckl": 2350,
      "ird": 2351,
      "Please": 2352,
      "Ġsour": 2353,
      "ĠOn": 2354,
      "Ġmeant": 2355,
      "Ġshelf": 2356,
      "most": 2357,
      "Ġmaybe": 2358,
      "Dad": 2359,
      "Ġwash": 2360,
      "Ġlem": 2361,
      "Ġjumping": 2362,
      "ned": 2363,
      "Ġmoon": 2364,
      "Ġlegs": 2365,
      "elly": 2366,
      "Ġhidden": 2367,
      "Ġhours": 2368,
      "Ġwhis": 2369,
      "Ġalmost": 2370,
      "airs": 2371,
      "Ġlanded": 2372,
      "Ġdecor": 2373,
      "ustr": 2374,
      "Ġhonest": 2375,
      "ying": 2376,
      "ĠMum": 2377,
      "Ġknowing": 2378,
      "Ġmissed": 2379,
      "Ġdisappointed": 2380,
      "To": 2381,
      "Ġstood": 2382,
      "Ġav": 2383,
      "'d": 2384,
      "aking": 2385,
      "Ġpri": 2386,
      "ano": 2387,
      "Ġline": 2388,
      "Ġgun": 2389,
      "dle": 2390,
      "Ġnut": 2391,
      "Ġfear": 2392,
      "Ġpin": 2393,
      "Ġbreath": 2394,
      "ĠPlease": 2395,
      "ĠSome": 2396,
      "Ġsharing": 2397,
      "Ġcarried": 2398,
      "Ġpizz": 2399,
      "kin": 2400,
      "ĠEven": 2401,
      "Ġscre": 2402,
      "Mama": 2403,
      "Ġhears": 2404,
      "Ġprince": 2405,
      "Ġgener": 2406,
      "ĠLe": 2407,
      "Ġsnacks": 2408,
      "Ġgroup": 2409,
      "ĠTV": 2410,
      "Ġgray": 2411,
      "Ġtells": 2412,
      "ian": 2413,
      "Ġsplash": 2414,
      "Ġcro": 2415,
      "Ġfrustr": 2416,
      "Ġshore": 2417,
      "erp": 2418,
      "Ġreturned": 2419,
      "Ġscar": 2420,
      "Ġpay": 2421,
      "erry": 2422,
      "Ġunderstood": 2423,
      "Ġthankful": 2424,
      "Ġmysterious": 2425,
      "ĠTheir": 2426,
      "Ġfancy": 2427,
      "gly": 2428,
      "Ġgold": 2429,
      "Ġstanding": 2430,
      "Ġbal": 2431,
      "Ġplants": 2432,
      "ony": 2433,
      "Ġmessy": 2434,
      "Ġwhisp": 2435,
      "Ġsticks": 2436,
      "Ġnecklace": 2437,
      "Be": 2438,
      "Ġugly": 2439,
      "ĠTeddy": 2440,
      "obby": 2441,
      "Ġsuccess": 2442,
      "ĠTogether": 2443,
      "orry": 2444,
      "Ġseed": 2445,
      "Ġsandwich": 2446,
      "Ġsleepy": 2447,
      "lower": 2448,
      "vous": 2449,
      "Ġfrustrated": 2450,
      "Ġjew": 2451,
      "Ġbedroom": 2452,
      "Ġyelled": 2453,
      "Ġvan": 2454,
      "era": 2455,
      "Ġtest": 2456,
      "Ġdrew": 2457,
      "Ġpizza": 2458,
      "Ġtaught": 2459,
      "Ġgathered": 2460,
      "Ġtwirl": 2461,
      "Ġpuzzle": 2462,
      "Ġblow": 2463,
      "Ġcirc": 2464,
      "ital": 2465,
      "Ġgas": 2466,
      "Ġspoil": 2467,
      "Ġwolf": 2468,
      "usie": 2469,
      "Ġpowerful": 2470,
      "ĠAnn": 2471,
      "Ġburn": 2472,
      "ork": 2473,
      "Ġfig": 2474,
      "Ġdetermined": 2475,
      "Ġmot": 2476,
      "ser": 2477,
      "Ġsna": 2478,
      "Ġhosp": 2479,
      "itter": 2480,
      "Ġpolice": 2481,
      "sist": 2482,
      "Ġwaves": 2483,
      "Ġhospital": 2484,
      "hin": 2485,
      "Ġcomfortable": 2486,
      "Ġpillow": 2487,
      "pack": 2488,
      "Ġmummy": 2489,
      "Ġexcite": 2490,
      "Ġeasy": 2491,
      "Ġner": 2492,
      "llie": 2493,
      "There": 2494,
      "Ġashamed": 2495,
      "Ġgenerous": 2496,
      "ual": 2497,
      "Sarah": 2498,
      "ensive": 2499,
      "Ġhur": 2500,
      "Ġrad": 2501,
      "ĠWhy": 2502,
      "iff": 2503,
      "Ġclass": 2504,
      "Ġfil": 2505,
      "Ġdeer": 2506,
      "Ġpassed": 2507,
      "Ġexpensive": 2508,
      "ĠZ": 2509,
      "Jane": 2510,
      "Ġpoor": 2511,
      "ĠPeter": 2512,
      "Ġhel": 2513,
      "Ġnervous": 2514,
      "Ġthese": 2515,
      "osaur": 2516,
      "Ġcaterp": 2517,
      "Ġcaterpill": 2518,
      "Ġminutes": 2519,
      "Ġdancing": 2520,
      "Ġtick": 2521,
      "Ġoften": 2522,
      "izzy": 2523,
      "Ġlit": 2524,
      "ĠJohnny": 2525,
      "Stop": 2526,
      "Ġexcitement": 2527,
      "Ġesc": 2528,
      "light": 2529,
      "Ġgate": 2530,
      "Ġtaken": 2531,
      "Ġreg": 2532,
      "uce": 2533,
      "Ġcries": 2534,
      "Ġbridge": 2535,
      "ĠDon": 2536,
      "work": 2537,
      "Ġspend": 2538,
      "Ġexam": 2539,
      "Ġpleased": 2540,
      "mb": 2541,
      "Ġseek": 2542,
      "iddle": 2543,
      "Ġknight": 2544,
      "Ġnods": 2545,
      "oop": 2546,
      "Ġpacked": 2547,
      "Ġship": 2548,
      "Ġpir": 2549,
      "iness": 2550,
      "Ġfeed": 2551,
      "Ġpolite": 2552,
      "arl": 2553,
      "Ġsold": 2554,
      "Ġdinosaur": 2555,
      "Ġcri": 2556,
      "Ġbone": 2557,
      "Ġscr": 2558,
      "Ġsighed": 2559,
      "illed": 2560,
      "Ġvase": 2561,
      "ote": 2562,
      "Ġbored": 2563,
      "ĠBe": 2564,
      "af": 2565,
      "ina": 2566,
      "Ġsaved": 2567,
      "Ġnumber": 2568,
      "Ġflag": 2569,
      "ĠBr": 2570,
      "Ġvegetables": 2571,
      "ete": 2572,
      "Ġrelax": 2573,
      "Ġtent": 2574,
      "Ġleg": 2575,
      "Ġanswered": 2576,
      "Ġchest": 2577,
      "Ġglass": 2578,
      "Ġtrue": 2579,
      "Ġcaterpillar": 2580,
      "Ġwander": 2581,
      "Ġweak": 2582,
      "Ġflut": 2583,
      "Ġworking": 2584,
      "ecially": 2585,
      "Where": 2586,
      "Ġjelly": 2587,
      "Ġcloset": 2588,
      "issors": 2589,
      "Ġfinger": 2590,
      "Ġhopping": 2591,
      "Ġcontent": 2592,
      "Ġsmelly": 2593,
      "Ġboring": 2594,
      "Ġstuff": 2595,
      "Ġclown": 2596,
      "Ġgrumpy": 2597,
      "Ġchew": 2598,
      "Ġscissors": 2599,
      "Ġasking": 2600,
      "Ġgar": 2601,
      "selves": 2602,
      "oof": 2603,
      "Ġmiddle": 2604,
      "Ġhang": 2605,
      "ushed": 2606,
      "pecially": 2607,
      "Ġscarf": 2608,
      "Ġmatch": 2609,
      "Ġespecially": 2610,
      "Ġyourself": 2611,
      "body": 2612,
      "Ġcrawl": 2613,
      "Ġteam": 2614,
      "Ġdrum": 2615,
      "Ġgiggled": 2616,
      "Ġplayground": 2617,
      "Ġwagged": 2618,
      "Ġwis": 2619,
      "Ġmedic": 2620,
      "Ġsight": 2621,
      "ets": 2622,
      "Ġlazy": 2623,
      "que": 2624,
      "Ġkissed": 2625,
      "Ġlemon": 2626,
      "Jimmy": 2627,
      "Ġcand": 2628,
      "Ġdistance": 2629,
      "Ġtears": 2630,
      "ggs": 2631,
      "Ġmic": 2632,
      "Ġsailed": 2633,
      "Ġeggs": 2634,
      "Ġdrawing": 2635,
      "ates": 2636,
      "ĠBl": 2637,
      "Ġdest": 2638,
      "Ġmov": 2639,
      "Ġshoot": 2640,
      "Ġmedicine": 2641,
      "Ġlead": 2642,
      "Ġpray": 2643,
      "ĠEnd": 2644,
      "Ġmistake": 2645,
      "Ġmir": 2646,
      "Ġbecome": 2647,
      "Ġlying": 2648,
      "ating": 2649,
      "ĠRex": 2650,
      "Ġfis": 2651,
      "Ġballs": 2652,
      "Ġsplashed": 2653,
      "Sorry": 2654,
      "ĠOK": 2655,
      "Ġtie": 2656,
      "Ġlock": 2657,
      "aged": 2658,
      "alous": 2659,
      "ella": 2660,
      "Ġdrop": 2661,
      "Ġadd": 2662,
      "Ġstones": 2663,
      "Ġones": 2664,
      "Ġquestions": 2665,
      "Ġext": 2666,
      "Ġjealous": 2667,
      "Ġclap": 2668,
      "Ġeld": 2669,
      "Ġok": 2670,
      "Ġwalks": 2671,
      "ĠLeo": 2672,
      "Ġrid": 2673,
      "Ġbathroom": 2674,
      "ror": 2675,
      "Ġgets": 2676,
      "Ġcrown": 2677,
      "Ġwheel": 2678,
      "Ġboss": 2679,
      "Ġfruits": 2680,
      "Ġfluffy": 2681,
      "Ġfeathers": 2682,
      "Ġskipped": 2683,
      "Ġglow": 2684,
      "Ġcrack": 2685,
      "Ġdisappeared": 2686,
      "Are": 2687,
      "Ġmap": 2688,
      "Ġcross": 2689,
      "Ġchange": 2690,
      "Ġweek": 2691,
      "Ġruined": 2692,
      "Jill": 2693,
      "Ġmoving": 2694,
      "Ġqueen": 2695,
      "Ġcalling": 2696,
      "Ġdiscovered": 2697,
      "Ġextra": 2698,
      "Ġcage": 2699,
      "imp": 2700,
      "Ġwrote": 2701,
      "Ġbake": 2702,
      "Ġfake": 2703,
      "Ġjuicy": 2704,
      "Ġcap": 2705,
      "Ġthick": 2706,
      "Ġbody": 2707,
      "Their": 2708,
      "ĠAt": 2709,
      "Ġgarage": 2710,
      "Ġfather": 2711,
      "Ġeye": 2712,
      "Sally": 2713,
      "ym": 2714,
      "Ġincred": 2715,
      "ination": 2716,
      "Ġunus": 2717,
      "Ġjoke": 2718,
      "ots": 2719,
      "Ġind": 2720,
      "Ġsoap": 2721,
      "Ġlose": 2722,
      "Ġsweetie": 2723,
      "Ġsell": 2724,
      "Ġbrush": 2725,
      "Ġcolourful": 2726,
      "Ġunusual": 2727,
      "cept": 2728,
      "enny": 2729,
      "Ġroar": 2730,
      "Ġdogs": 2731,
      "elp": 2732,
      "Ġglue": 2733,
      "uggest": 2734,
      "Ġmeasure": 2735,
      "Billy": 2736,
      "Ġsuggest": 2737,
      "Ġcover": 2738,
      "Ġcovered": 2739,
      "Who": 2740,
      "ha": 2741,
      "Ġdish": 2742,
      "keep": 2743,
      "Ġord": 2744,
      "Ġrealised": 2745,
      "Ġfamous": 2746,
      "yal": 2747,
      "asing": 2748,
      "Ġnoisy": 2749,
      "port": 2750,
      "Ġboard": 2751,
      "Ġboys": 2752,
      "Ġlicked": 2753,
      "ĠIf": 2754,
      "Ġdrank": 2755,
      "Ġbranches": 2756,
      "Ġpicks": 2757,
      "Ġadventur": 2758,
      "Ġsug": 2759,
      "umbled": 2760,
      "Ġtag": 2761,
      "Ġcost": 2762,
      "Ġelderly": 2763,
      "Ġmirror": 2764,
      "Ġonce": 2765,
      "Ġeager": 2766,
      "Ġclear": 2767,
      "Me": 2768,
      "Ġhappening": 2769,
      "Sp": 2770,
      "Ġcheck": 2771,
      "Ġincredible": 2772,
      "Ġdig": 2773,
      "ured": 2774,
      "Ġcleaned": 2775,
      "Ġmighty": 2776,
      "Ġtiger": 2777,
      "Ġadventurous": 2778,
      "Ġsugar": 2779,
      "Ġtape": 2780,
      "ately": 2781,
      "Ġtowel": 2782,
      "Ġbanana": 2783,
      "Ġed": 2784,
      "Ġcraw": 2785,
      "Ġmotor": 2786,
      "Ġsil": 2787,
      "cil": 2788,
      "Ġbubbles": 2789,
      "Ġpencil": 2790,
      "Ġfigure": 2791,
      "Ġcrawled": 2792,
      "illi": 2793,
      "Ġfine": 2794,
      "Ġborrow": 2795,
      "Ġhorn": 2796,
      "Ġknife": 2797,
      "Help": 2798,
      "hip": 2799,
      "Ġoffered": 2800,
      "Ġstraw": 2801,
      "fast": 2802,
      "Ġtwist": 2803,
      "ĠBlue": 2804,
      "Ġang": 2805,
      "Ġloyal": 2806,
      "Ġdecide": 2807,
      "Ġyours": 2808,
      "Ġbottom": 2809,
      "ti": 2810,
      "?\".": 2811,
      "ĠSusie": 2812,
      "ache": 2813,
      "Ġbreakfast": 2814,
      "ique": 2815,
      "ĠKitty": 2816,
      "Ġaw": 2817,
      "Ġshows": 2818,
      "Ġword": 2819,
      "ory": 2820,
      "Ġfavour": 2821,
      "Ġlouder": 2822,
      "keeper": 2823,
      "ĠLittle": 2824,
      "land": 2825,
      "Ġunique": 2826,
      "Ġorganized": 2827,
      "Ġtoug": 2828,
      "Ġrare": 2829,
      "Ġmanaged": 2830,
      "Ġenjoying": 2831,
      "Ġnod": 2832,
      "Ġbloom": 2833,
      "fic": 2834,
      "Ġwand": 2835,
      "Ġwhale": 2836,
      "Ġmod": 2837,
      "imed": 2838,
      "Ġegg": 2839,
      "Ġfavourite": 2840,
      "Ġboxes": 2841,
      "uggled": 2842,
      "Ġagainst": 2843,
      "rag": 2844,
      "lies": 2845,
      "Ġgoat": 2846,
      "Ġkindness": 2847,
      "Ġimpressed": 2848,
      "Ġadded": 2849,
      "Ġpump": 2850,
      "Ġfridge": 2851,
      "ipp": 2852,
      "Ġlamp": 2853,
      "Ġdizzy": 2854,
      "Ġdiffic": 2855,
      "Ġwrapped": 2856,
      "Ġsword": 2857,
      "Ġfright": 2858,
      "Ġspun": 2859,
      "Ġgiving": 2860,
      "Ġfool": 2861,
      "Ġwagon": 2862,
      "Ġpee": 2863,
      "Ġsquee": 2864,
      "Ġguess": 2865,
      "olog": 2866,
      "Ġcher": 2867,
      "Ġshake": 2868,
      "ĠMark": 2869,
      "ĠBrown": 2870,
      "Ġarg": 2871,
      "Ġcoins": 2872,
      "Ġdifficult": 2873,
      "Ġham": 2874,
      "Ġhappiness": 2875,
      "Ġsafely": 2876,
      "Ġhero": 2877,
      "Ġbarn": 2878,
      "Ġloudly": 2879,
      "Ġbelonged": 2880,
      "Ġtough": 2881,
      "Ġapolog": 2882,
      "emo": 2883,
      "ilt": 2884,
      "Al": 2885,
      "anged": 2886,
      "Ġgrace": 2887,
      "Ġchicken": 2888,
      "Ġballoons": 2889,
      "ery": 2890,
      "Ġfrown": 2891,
      "ready": 2892,
      "arry": 2893,
      "Ġnorm": 2894,
      "Mummy": 2895,
      "zed": 2896,
      "Gra": 2897,
      "Ġhunt": 2898,
      "Ġjewel": 2899,
      "Amy": 2900,
      "Ġbald": 2901,
      "Ġtunn": 2902,
      "ĠNo": 2903,
      "Ġgrown": 2904,
      "Ġlearning": 2905,
      "Ġneeds": 2906,
      "Ġrich": 2907,
      "Ġaccept": 2908,
      "Ġfat": 2909,
      "Ġmelt": 2910,
      "Ġshark": 2911,
      "Ġalready": 2912,
      "Ġcircles": 2913,
      "edient": 2914,
      "Ġharm": 2915,
      "Ġweird": 2916,
      "rage": 2917,
      "Ġdepend": 2918,
      "ages": 2919,
      "Ġrecord": 2920,
      "Ġcheerful": 2921,
      "Ġfoolish": 2922,
      "Ġcam": 2923,
      "Ġbalance": 2924,
      "Sue": 2925,
      "head": 2926,
      "Ġpointing": 2927,
      "Ġchase": 2928,
      "Ġflash": 2929,
      "Ġslipped": 2930,
      "Ġmixed": 2931,
      "Ġhurts": 2932,
      "Ġbrothers": 2933,
      "Ġbuttons": 2934,
      "Ġpainting": 2935,
      "Ġsmoke": 2936,
      "ipper": 2937,
      "Ġsearch": 2938,
      "Ġstrawber": 2939,
      "Ġnormal": 2940,
      "Well": 2941,
      "Ġmarket": 2942,
      "How": 2943,
      "Ġisland": 2944,
      "Ġlog": 2945,
      "Ġrough": 2946,
      "Joe": 2947,
      "Ġears": 2948,
      "Ġhose": 2949,
      "omed": 2950,
      "Ġjack": 2951,
      "ject": 2952,
      "Ġstream": 2953,
      "ĠPete": 2954,
      "arth": 2955,
      "Ġtrucks": 2956,
      "Ġmovie": 2957,
      "bborn": 2958,
      "Ġturt": 2959,
      "Ġcity": 2960,
      "Ġchoose": 2961,
      "Ġkinds": 2962,
      "Ġfour": 2963,
      "alk": 2964,
      "Ġmeans": 2965,
      "Ġdreams": 2966,
      "Ġstubborn": 2967,
      "Ġter": 2968,
      "ature": 2969,
      "Ġcompet": 2970,
      "Ġobedient": 2971,
      "Ġnosy": 2972,
      "ĠBobby": 2973,
      "Ġswan": 2974,
      "Ġlifted": 2975,
      "Ġfrightened": 2976,
      "Ġweal": 2977,
      "Ġref": 2978,
      "Ġbrilli": 2979,
      "ĠMrs": 2980,
      "Ġgrap": 2981,
      "oot": 2982,
      "Ġmoms": 2983,
      "Ġclay": 2984,
      "Ġicy": 2985,
      "Ġsaying": 2986,
      "iable": 2987,
      "Ġdreamed": 2988,
      "Ġbrilliant": 2989,
      "Ġmagn": 2990,
      "Ġedge": 2991,
      "gy": 2992,
      "und": 2993,
      "Ġtwig": 2994,
      "Ġusing": 2995,
      "Ġscare": 2996,
      "Ġskin": 2997,
      "Ġproudly": 2998,
      "Ġunl": 2999,
      "Ġbitter": 3000,
      "Ġoffice": 3001,
      "Ġsounded": 3002,
      "Ġreliable": 3003,
      "Ġwalls": 3004,
      "Ġvalu": 3005,
      "wards": 3006,
      "Ġlibr": 3007,
      "Ġuseful": 3008,
      "Ġescape": 3009,
      "Ġpil": 3010,
      "atter": 3011,
      "Ġabove": 3012,
      "Ġstronger": 3013,
      "Ġber": 3014,
      "Ġcircle": 3015,
      "Ġdolp": 3016,
      "Ġwrap": 3017,
      "cient": 3018,
      "Ġguit": 3019,
      "Ġrat": 3020,
      "Ġthoughtful": 3021,
      "Ġtrack": 3022,
      "Ġberries": 3023,
      "laimed": 3024,
      "Ġjoined": 3025,
      "Ġtools": 3026,
      "Ġcompetit": 3027,
      "Ġtoast": 3028,
      "Ġlean": 3029,
      "Ġfier": 3030,
      "ĠDucky": 3031,
      "ĠWhenever": 3032,
      "Ġinvited": 3033,
      "Ġexclaimed": 3034,
      "Ġhats": 3035,
      "Ġfalls": 3036,
      "Ġdependable": 3037,
      "Ġfre": 3038,
      "ĠToday": 3039,
      "iv": 3040,
      "Ġsuit": 3041,
      "Ġtank": 3042,
      "Ġcrayon": 3043,
      "Ġjam": 3044,
      "Ġgrandpa": 3045,
      "Ġtrunk": 3046,
      "Ġspoiled": 3047,
      "Ġbossy": 3048,
      "Ġexplored": 3049,
      "Ġindepend": 3050,
      "Ġgem": 3051,
      "Ġroof": 3052,
      "Ġcleaning": 3053,
      "bin": 3054,
      "Ġancient": 3055,
      "Ġtummy": 3056,
      "Ġenorm": 3057,
      "Ġbushes": 3058,
      "Ġshells": 3059,
      "Ġreminded": 3060,
      "Ġfierce": 3061,
      "Ġharder": 3062,
      "Ġenormous": 3063,
      "oppy": 3064,
      "ye": 3065,
      "Ġtimes": 3066,
      "Ġfrag": 3067,
      "Ġthu": 3068,
      "Ġswe": 3069,
      "ĠFred": 3070,
      "Ġchose": 3071,
      "Spot": 3072,
      "Ġyog": 3073,
      "Ġstumbled": 3074,
      "Ġperform": 3075,
      "Ġlaughs": 3076,
      "Ġshape": 3077,
      "Ġcabin": 3078,
      "Ġdesign": 3079,
      "ention": 3080,
      "ÅĵLet": 3081,
      "ext": 3082,
      "Ġfountain": 3083,
      "ola": 3084,
      "ĠBu": 3085,
      "Ġyarn": 3086,
      "Ġterri": 3087,
      "Ġsuggested": 3088,
      "Ġwake": 3089,
      "amond": 3090,
      "Ġspace": 3091,
      "Here": 3092,
      "ress": 3093,
      "Ġhelps": 3094,
      "Ġmem": 3095,
      "Ġturtle": 3096,
      "Ġvaluable": 3097,
      "Ġguitar": 3098,
      "Ġmarble": 3099,
      "Ġdelighted": 3100,
      "orge": 3101,
      "Ġsmaller": 3102,
      "irp": 3103,
      "ipe": 3104,
      "Ġbeet": 3105,
      "Ġnotice": 3106,
      "Ġdiamond": 3107,
      "ĠU": 3108,
      "ĠMy": 3109,
      "Ġrode": 3110,
      "Ġlaw": 3111,
      "Ġjog": 3112,
      "Ġraced": 3113,
      "Ġcudd": 3114,
      "ĠNemo": 3115,
      "ĠElla": 3116,
      "ouses": 3117,
      "Ġindependent": 3118,
      "Ġparrot": 3119,
      "Ġshone": 3120,
      "Ġcounted": 3121,
      "Ġseem": 3122,
      "Ġexcitedly": 3123,
      "Ġshowing": 3124,
      "Ġfragile": 3125,
      "Ġbuilt": 3126,
      "Ġlow": 3127,
      "anut": 3128,
      "Ġknows": 3129,
      "Ġcamera": 3130,
      "Ġson": 3131,
      "Ġcostum": 3132,
      "uring": 3133,
      "Ġbrightly": 3134,
      "Ġwealthy": 3135,
      "dom": 3136,
      "kn": 3137,
      "Ġcere": 3138,
      "Ġsuccessful": 3139,
      "inary": 3140,
      "Ġbounce": 3141,
      "Ġfingers": 3142,
      "Ġadmired": 3143,
      "Ġangel": 3144,
      "Ġcop": 3145,
      "anger": 3146,
      "Ġways": 3147,
      "ĠRose": 3148,
      "Ġstudy": 3149,
      "Em": 3150,
      "Ġchanged": 3151,
      "Ġbags": 3152,
      "Ġbirdie": 3153,
      "Ġbatter": 3154,
      "Ġstamp": 3155,
      "Ġsolve": 3156,
      "Ġthirst": 3157,
      "Ġbull": 3158,
      "Ġhouses": 3159,
      "gest": 3160,
      "Ġstri": 3161,
      "Ġarrow": 3162,
      "Ġmole": 3163,
      "Ġpainted": 3164,
      "umbers": 3165,
      "Ġtunnel": 3166,
      "inal": 3167,
      "Ġrushed": 3168,
      "iew": 3169,
      "Ġpicking": 3170,
      "Ġtele": 3171,
      "Ġlights": 3172,
      "Ġprize": 3173,
      "Ġthemselves": 3174,
      "Ġbiggest": 3175,
      "Ġdove": 3176,
      "Ġkicked": 3177,
      "Ġpractice": 3178,
      "Ġmarch": 3179,
      "eorge": 3180,
      "com": 3181,
      "iginal": 3182,
      "Ġfresh": 3183,
      "Ġtooth": 3184,
      "Ġgoose": 3185,
      "Ġview": 3186,
      "Ġpost": 3187,
      "Ġsauce": 3188,
      "Ġlab": 3189,
      "Ġenvel": 3190,
      "cod": 3191,
      "Ġcomput": 3192,
      "known": 3193,
      "ado": 3194,
      "Ġsunf": 3195,
      "Ġsearching": 3196,
      "Ġhay": 3197,
      "Ġcone": 3198,
      "Ġresc": 3199,
      "Ġpoured": 3200,
      "Ġpumpkin": 3201,
      "Ġspinning": 3202,
      "corn": 3203,
      "Ġyet": 3204,
      "Ġgrand": 3205,
      "ĠFin": 3206,
      "Ġsalad": 3207,
      "Ġoriginal": 3208,
      "Ġcheap": 3209,
      "Ġstove": 3210,
      "Ġcereal": 3211,
      "Ġenc": 3212,
      "upid": 3213,
      "Ġclum": 3214,
      "Ġpeanut": 3215,
      "Ġdreaming": 3216,
      "anny": 3217,
      "Ġshadow": 3218,
      "Ġscrat": 3219,
      "Ġbeetle": 3220,
      "Ġbeak": 3221,
      "Ġdull": 3222,
      "uth": 3223,
      "Ġforth": 3224,
      "ĠMar": 3225,
      "Ġunknown": 3226,
      "Ġmetal": 3227,
      "ĠAlice": 3228,
      "Ġthirsty": 3229,
      "Ġcompass": 3230,
      "Ġserious": 3231,
      "Ġcrocod": 3232,
      "Ġnurse": 3233,
      "Ġpopcorn": 3234,
      "Ġsteal": 3235,
      "Ġdough": 3236,
      "Ġreward": 3237,
      "illie": 3238,
      "Ġpant": 3239,
      "Ġplayful": 3240,
      "Ġhandle": 3241,
      "Ġstupid": 3242,
      "ĠDave": 3243,
      "Ġclock": 3244,
      "Ġending": 3245,
      "âĤ¬âĢ": 3246,
      "Ġpup": 3247,
      "Ġpersist": 3248,
      "vice": 3249,
      "tern": 3250,
      "Ġwiped": 3251,
      "Ġprep": 3252,
      "ilty": 3253,
      "Ġnumbers": 3254,
      "Ġguilty": 3255,
      "Ġfinding": 3256,
      "Ġdelicate": 3257,
      "Ġbean": 3258,
      "Ġdesk": 3259,
      "Ġwire": 3260,
      "ither": 3261,
      "Ġumb": 3262,
      "Ġstairs": 3263,
      "Ġlocked": 3264,
      "Ġflute": 3265,
      "Ġflashlight": 3266,
      "Ġclumsy": 3267,
      "Ġumbre": 3268,
      "Ġgraceful": 3269,
      "Ġcareless": 3270,
      "Ġtelling": 3271,
      "apped": 3272,
      "Ġhoop": 3273,
      "Ġsniff": 3274,
      "Ġwhispered": 3275,
      "Ġfork": 3276,
      "Ġnicely": 3277,
      "Ġhairy": 3278,
      "Ġtrap": 3279,
      "Ġcarrying": 3280,
      "Ġpeeked": 3281,
      "Ġallowed": 3282,
      "Ġdead": 3283,
      "ience": 3284,
      "Ġmoder": 3285,
      "Ġmis": 3286,
      "ĠMummy": 3287,
      "Ġleaving": 3288,
      "Ġchar": 3289,
      "Ġboats": 3290,
      "Ġthunder": 3291,
      "Ġow": 3292,
      "Ġpotato": 3293,
      "Ġing": 3294,
      "Ġmel": 3295,
      "Ġthose": 3296,
      "Ġshel": 3297,
      "time": 3298,
      "Ġsnee": 3299,
      "Ġterrible": 3300,
      "Ġsudden": 3301,
      "Ġnote": 3302,
      "!\".": 3303,
      "Ġpasta": 3304,
      "Ġimagined": 3305,
      "Ġcompassion": 3306,
      "Ġbump": 3307,
      "ray": 3308,
      "redient": 3309,
      "Ġsparkled": 3310,
      "Ġavo": 3311,
      "Ġscreen": 3312,
      "Ġregular": 3313,
      "Ġingredient": 3314,
      "Ġwashed": 3315,
      "ĠBella": 3316,
      "Ġtomato": 3317,
      "While": 3318,
      "Ġstranger": 3319,
      "Ġwarned": 3320,
      "Ġenvelope": 3321,
      "Ġhalf": 3322,
      "Ġjolly": 3323,
      "ement": 3324,
      "Ġpattern": 3325,
      "Ġpopular": 3326,
      "Ġjacket": 3327,
      "Ġmodern": 3328,
      "ines": 3329,
      "Ġprint": 3330,
      "Ġmailbox": 3331,
      "ĠTweety": 3332,
      "Ġpirate": 3333,
      "Ġearth": 3334,
      "Ġcomputer": 3335,
      "Ġpow": 3336,
      "Ġfriendship": 3337,
      "ĠWhile": 3338,
      "oomy": 3339,
      "comfort": 3340,
      "Ġgrowing": 3341,
      "Ġhammer": 3342,
      "Ġstat": 3343,
      "Ġshiver": 3344,
      "Ġsne": 3345,
      "Ġimpress": 3346,
      "Ġliz": 3347,
      "Ġmeal": 3348,
      "Ġdeliver": 3349,
      "Ġacorn": 3350,
      "ĠBobo": 3351,
      "Ġseeds": 3352,
      "ision": 3353,
      "robe": 3354,
      "Ġuncomfort": 3355,
      "Ġaunt": 3356,
      "isk": 3357,
      "ugged": 3358,
      "Ġuncomfortable": 3359,
      "Ġcur": 3360,
      "Ġbees": 3361,
      "ĠEllie": 3362,
      "Ġdoesn": 3363,
      "Ġrubb": 3364,
      "Ġmissing": 3365,
      "tter": 3366,
      "illa": 3367,
      "Ġscatter": 3368,
      "Ġzip": 3369,
      "ations": 3370,
      "Ġrefused": 3371,
      "Ġenv": 3372,
      "Ġdriving": 3373,
      "Ġpige": 3374,
      "Ġtied": 3375,
      "Ġflex": 3376,
      "Ġcrocodile": 3377,
      "Ġspilled": 3378,
      "Ġorder": 3379,
      "Ġguard": 3380,
      "Ġpenny": 3381,
      "Ġrubbed": 3382,
      "Ġstops": 3383,
      "Ġcomplet": 3384,
      "Ġtwirled": 3385,
      "See": 3386,
      "Ġer": 3387,
      "Ġwing": 3388,
      "Ġingredients": 3389,
      "Ġadvice": 3390,
      "Ġattic": 3391,
      "Ġpersistent": 3392,
      "Ġtrump": 3393,
      "ÅĵWhat": 3394,
      "Ġthinking": 3395,
      "Ġwitch": 3396,
      "ellig": 3397,
      "Ġhelm": 3398,
      "ÅĵLetÃ¢": 3399,
      "Ġload": 3400,
      "Ġintellig": 3401,
      "Ġhanded": 3402,
      "Ġtravel": 3403,
      "Ġperm": 3404,
      "Ġsink": 3405,
      "Ġdust": 3406,
      "Ġsorts": 3407,
      "arsh": 3408,
      "Ġumbrella": 3409,
      "het": 3410,
      "ĠYour": 3411,
      "Ġjug": 3412,
      "ÅĵIt": 3413,
      "Ġrub": 3414,
      "Ġbarber": 3415,
      "Ġotter": 3416,
      "Ġanx": 3417,
      "Ġpatch": 3418,
      "Ġearly": 3419,
      "Ġbent": 3420,
      "uddy": 3421,
      "Ġsquash": 3422,
      "Ġsleeping": 3423,
      "Ġquestion": 3424,
      "Ġcreate": 3425,
      "Ġchasing": 3426,
      "Ġsurf": 3427,
      "Ġcooking": 3428,
      "Ġdestro": 3429,
      "Ġtask": 3430,
      "Ġscale": 3431,
      "Ġrose": 3432,
      "aghet": 3433,
      "Ġplaced": 3434,
      "Ġflexible": 3435,
      "aghetti": 3436,
      "awn": 3437,
      "ict": 3438,
      "Ġcelebrate": 3439,
      "Ġshut": 3440,
      "Ġuncle": 3441,
      "fa": 3442,
      "Ġcounting": 3443,
      "Ġanxious": 3444,
      "Ġnature": 3445,
      "Ġbrace": 3446,
      "Ġdiscover": 3447,
      "Ġslides": 3448,
      "Ġgasped": 3449,
      "Ġstage": 3450,
      "Ġspaghetti": 3451,
      "Ġcrazy": 3452,
      "Ġhumble": 3453,
      "Ġharmless": 3454,
      "Ġrug": 3455,
      "Ġscoot": 3456,
      "Ġsunflower": 3457,
      "llip": 3458,
      "Ġeng": 3459,
      "Ġbeauty": 3460,
      "Ġbutterflies": 3461,
      "Ġcreatures": 3462,
      "llipop": 3463,
      "Ġmask": 3464,
      "Ġresist": 3465,
      "ĠAlex": 3466,
      "Ġlibrary": 3467,
      "io": 3468,
      "Ġblueber": 3469,
      "Ġencou": 3470,
      "Ġimpressive": 3471,
      "Ġshocked": 3472,
      "Ġtruth": 3473,
      "Ġsnuggled": 3474,
      "Ġlizard": 3475,
      "Ġtor": 3476,
      "ince": 3477,
      "Ġknock": 3478,
      "Ġsquare": 3479,
      "Ġsett": 3480,
      "Ġordinary": 3481,
      "iches": 3482,
      "ĠcouldnÃ¢": 3483,
      "Ġpale": 3484,
      "Ġshield": 3485,
      "Ġlollipop": 3486,
      "Ġtrumpet": 3487,
      "Ġvol": 3488,
      "cano": 3489,
      "ĠMandy": 3490,
      "Ġrece": 3491,
      "ud": 3492,
      "loo": 3493,
      "Ġcush": 3494,
      "ĠMike": 3495,
      "Ġdisg": 3496,
      "Ġspring": 3497,
      "orant": 3498,
      "Ġspeed": 3499,
      "Ġcricket": 3500,
      "Ġhung": 3501,
      "Ġmill": 3502,
      "Ġgum": 3503,
      "ĠSn": 3504,
      "ric": 3505,
      "Ġtowers": 3506,
      "Ġbrighter": 3507,
      "ĠKim": 3508,
      "ophie": 3509,
      "Ġpants": 3510,
      "used": 3511,
      "host": 3512,
      "Ġdisgust": 3513,
      "Ġimpat": 3514,
      "Ġbadly": 3515,
      "uper": 3516,
      "Ġchance": 3517,
      "Ġattract": 3518,
      "Ġdolphin": 3519,
      "Ġitself": 3520,
      "ĠFr": 3521,
      "Ġreading": 3522,
      "ĠToby": 3523,
      "Ġcrane": 3524,
      "Ġobject": 3525,
      "Ġcharming": 3526,
      "Ġahead": 3527,
      "arian": 3528,
      "Ġpepper": 3529,
      "Ġholds": 3530,
      "Ġenth": 3531,
      "Ġneat": 3532,
      "Ġspoke": 3533,
      "noon": 3534,
      "Ġafternoon": 3535,
      "Ġstickers": 3536,
      "Ġopens": 3537,
      "Ġmath": 3538,
      "Ġghost": 3539,
      "Ġsadly": 3540,
      "ĠLook": 3541,
      "Ġcomb": 3542,
      "htub": 3543,
      "Ġanywhere": 3544,
      "Ġwheels": 3545,
      "Ġphot": 3546,
      "Ġcourage": 3547,
      "Ġstatue": 3548,
      "Ġwindows": 3549,
      "Ġbathtub": 3550,
      "Ġignorant": 3551,
      "Ġstretched": 3552,
      "Ġimpatient": 3553,
      "Ġdug": 3554,
      "Ġstation": 3555,
      "Ġcact": 3556,
      "ebra": 3557,
      "Ġmagnet": 3558,
      "Ġenthus": 3559,
      "Ġintelligent": 3560,
      "Ġtem": 3561,
      "Ġcarp": 3562,
      "Ġdrawer": 3563,
      "Ġsandwiches": 3564,
      "Ġsend": 3565,
      "Ġleop": 3566,
      "Ġmeas": 3567,
      "Ġtrick": 3568,
      "Ġled": 3569,
      "Ġgifted": 3570,
      "coa": 3571,
      "Ġshoe": 3572,
      "Ġcartoon": 3573,
      "Ġfearful": 3574,
      "Ġvolcano": 3575,
      "aid": 3576,
      "Ġpiano": 3577,
      "Ġletters": 3578,
      "Ġmelon": 3579,
      "Ġcocoa": 3580,
      "Ġcupboard": 3581,
      "aurant": 3582,
      "Ġnail": 3583,
      "Ġflour": 3584,
      "Ġzebra": 3585,
      "Ġsplit": 3586,
      "Ġcollar": 3587,
      "cu": 3588,
      "Ġrestaurant": 3589,
      "Ġfurther": 3590,
      "Ġnames": 3591,
      "Ġbase": 3592,
      "aches": 3593,
      "Ġcompassionate": 3594,
      "Ġgloomy": 3595,
      "bled": 3596,
      "Ġpebble": 3597,
      "Ġcompetitive": 3598,
      "Ġcactus": 3599,
      "Ġmay": 3600,
      "stri": 3601,
      "aby": 3602,
      "gu": 3603,
      "iest": 3604,
      "ĠHere": 3605,
      "ices": 3606,
      "Ġimpro": 3607,
      "Ġnuts": 3608,
      "Ġdestroy": 3609,
      "Go": 3610,
      "ĠPat": 3611,
      "Ġnowhere": 3612,
      "Ġjeep": 3613,
      "Ġpracticed": 3614,
      "Ġcamp": 3615,
      "Ġseal": 3616,
      "Ġjet": 3617,
      "ÅĵYes": 3618,
      "Ġrestless": 3619,
      "Ġhurry": 3620,
      "Ġpigeon": 3621,
      "ikes": 3622,
      "Ġshine": 3623,
      "ĠEverything": 3624,
      "Ġfirework": 3625,
      "Ġengine": 3626,
      "Ġtire": 3627,
      "Ġpurse": 3628,
      "Ġgir": 3629,
      "Ġyawn": 3630,
      "Ġener": 3631,
      "ibb": 3632,
      "Ġhipp": 3633,
      "Ġpretending": 3634,
      "Ġadmire": 3635,
      "Mary": 3636,
      "oe": 3637,
      "ĠSm": 3638,
      "Ġsofa": 3639,
      "Ġpackage": 3640,
      "Ġhunter": 3641,
      "Ġshaking": 3642,
      "ĠWh": 3643,
      "Ġtrash": 3644,
      "Ġdisgusting": 3645,
      "ips": 3646,
      "Ġsupport": 3647,
      "Ġjumps": 3648,
      "Ġenvious": 3649,
      "Ow": 3650,
      "Ġpony": 3651,
      "Ġanyway": 3652,
      "Ġdeaf": 3653,
      "aff": 3654,
      "Ġtap": 3655,
      "opus": 3656,
      "ctopus": 3657,
      "ĠJoey": 3658,
      "Ġcooked": 3659,
      "Ġtur": 3660,
      "ĠLola": 3661,
      "Ġraven": 3662,
      "Ġhuman": 3663,
      "ĠEventually": 3664,
      "Ġvalue": 3665,
      "Ġstack": 3666,
      "Ġspell": 3667,
      "Ġcompl": 3668,
      "Yay": 3669,
      "Ġmush": 3670,
      "Ġcandle": 3671,
      "Ġattractive": 3672,
      "Ġcarpet": 3673,
      "gn": 3674,
      "Ġbri": 3675,
      "erable": 3676,
      "ĠGrandpa": 3677,
      "Ġwheat": 3678,
      "Ġoctopus": 3679,
      "Ġswitch": 3680,
      "Ġbandage": 3681,
      "Ġcards": 3682,
      "Ġnobody": 3683,
      "Ġcats": 3684,
      "Ġmiserable": 3685,
      "ccol": 3686,
      "ĠPaul": 3687,
      "ccoli": 3688,
      "ceed": 3689,
      "ief": 3690,
      "Ġunpack": 3691,
      "ophone": 3692,
      "Ġtorn": 3693,
      "Ġsuper": 3694,
      "ĠCl": 3695,
      "Ġbracelet": 3696,
      "Ġleopard": 3697,
      "par": 3698,
      "Ġsepar": 3699,
      "Ġlaser": 3700,
      "Ġsalt": 3701,
      "Ġdecorate": 3702,
      "Ġsweater": 3703,
      "Ġbet": 3704,
      "Ġhelpless": 3705,
      "Ġwaff": 3706,
      "Ġsoar": 3707,
      "Ġreco": 3708,
      "Ġcryst": 3709,
      "Ġdistant": 3710,
      "cream": 3711,
      "Ġostri": 3712,
      "Ġrice": 3713,
      "ĠPe": 3714,
      "hood": 3715,
      "shed": 3716,
      "Ġdess": 3717,
      "Ġrules": 3718,
      "Alice": 3719,
      "ffe": 3720,
      "Ġalert": 3721,
      "Ġhedge": 3722,
      "aroo": 3723,
      "angaroo": 3724,
      "Ġfilthy": 3725,
      "Ġturkey": 3726,
      "Ġstarts": 3727,
      "ĠTweetie": 3728,
      "ffee": 3729,
      "year": 3730,
      "Ġax": 3731,
      "Ġol": 3732,
      "Ġgor": 3733,
      "Ġbackpack": 3734,
      "Ġclub": 3735,
      "Ġpengu": 3736,
      "ses": 3737,
      "Benny": 3738,
      "Ġsym": 3739,
      "ummer": 3740,
      "Ġolder": 3741,
      "Ġexplain": 3742,
      "uct": 3743,
      "ÅĵThat": 3744,
      "Ġthread": 3745,
      "Ġcows": 3746,
      "Ġgiggle": 3747,
      "zzy": 3748,
      "ĠAndy": 3749,
      "Ġbroccoli": 3750,
      "iron": 3751,
      "Ġstared": 3752,
      "Ġkangaroo": 3753,
      "Ġpressed": 3754,
      "Ġelev": 3755,
      "Ġfootball": 3756,
      "Ġhippo": 3757,
      "Ġtray": 3758,
      "Ġclapping": 3759,
      "cycle": 3760,
      "Ġparade": 3761,
      "Ġlively": 3762,
      "aked": 3763,
      "ailable": 3764,
      "Ġsucceed": 3765,
      "Ġpaws": 3766,
      "Ġsize": 3767,
      "Ġbicy": 3768,
      "Ġrolling": 3769,
      "Ġsticker": 3770,
      "gging": 3771,
      "Ġgolf": 3772,
      "Ġleash": 3773,
      "Ġchain": 3774,
      "ubby": 3775,
      "Ġbeep": 3776,
      "Ġgoal": 3777,
      "bol": 3778,
      "Ġmushroom": 3779,
      "Re": 3780,
      "Ġcurt": 3781,
      "orable": 3782,
      "Ġhappier": 3783,
      "Ġelevator": 3784,
      "cut": 3785,
      "Ġaxe": 3786,
      "Ġsymbol": 3787,
      "Ġcurtain": 3788,
      "Ġhook": 3789,
      "Ġhive": 3790,
      "Ġpun": 3791,
      "urb": 3792,
      "Ġavailable": 3793,
      "Ġhelmet": 3794,
      "Ġvine": 3795,
      "apa": 3796,
      "Ġdisturb": 3797,
      "Ġmicr": 3798,
      "Ġsilver": 3799,
      "Ġmug": 3800,
      "Ġquite": 3801,
      "Ġdessert": 3802,
      "If": 3803,
      "Ġoy": 3804,
      "Ġjokes": 3805,
      "Ġbounced": 3806,
      "aulif": 3807,
      "Ġharsh": 3808,
      "Ġtrop": 3809,
      "ĠPolly": 3810,
      "Ġrod": 3811,
      "Ġcountry": 3812,
      "Ġscooter": 3813,
      "Ġsoldier": 3814,
      "Ġavoc": 3815,
      "ĠBear": 3816,
      "Ġcoffee": 3817,
      "Ġcolours": 3818,
      "Ġexper": 3819,
      "Everyone": 3820,
      "heart": 3821,
      "inking": 3822,
      "ĠBuddy": 3823,
      "Ġskip": 3824,
      "Ġneedle": 3825,
      "Ġadorable": 3826,
      "Ġmessage": 3827,
      "Ġpushing": 3828,
      "Ġtreasures": 3829,
      "Ġstirred": 3830,
      "ĠBill": 3831,
      "ĠWhere": 3832,
      "Ġpainter": 3833,
      "Ġsecond": 3834,
      "Ġneighbour": 3835,
      "Ġorganize": 3836,
      "Ġroared": 3837,
      "Ġframe": 3838,
      "Ġmicrophone": 3839,
      "Ġcord": 3840,
      "Ġur": 3841,
      "Ġsomewhere": 3842,
      "Ġsteps": 3843,
      "Ġrecogn": 3844,
      "Ġostrich": 3845,
      "Ġtrophy": 3846,
      "Ġfu": 3847,
      "Ġcaulif": 3848,
      "Ġhall": 3849,
      "ĠGive": 3850,
      "Ġriding": 3851,
      "Ġcushion": 3852,
      "ĠSmith": 3853,
      "Ġgorilla": 3854,
      "ef": 3855,
      "ipping": 3856,
      "Ġsent": 3857,
      "Ġbin": 3858,
      "Ġstarting": 3859,
      "ĠGeorge": 3860,
      "Ġbarrel": 3861,
      "Ġrepe": 3862,
      "Ġwishes": 3863,
      "Ġmodest": 3864,
      "ws": 3865,
      "Ġoat": 3866,
      "ĠSh": 3867,
      "Little": 3868,
      "Ġmuff": 3869,
      "Ġchubby": 3870,
      "Ġuniver": 3871,
      "Ġpolish": 3872,
      "ĠGrace": 3873,
      "Ġradio": 3874,
      "ĠAre": 3875,
      "stairs": 3876,
      "Ġshouts": 3877,
      "Ġforgave": 3878,
      "Ġcooler": 3879,
      "Ġpilot": 3880,
      "Ġsle": 3881,
      "elery": 3882,
      "Ġvi": 3883,
      "Ġgiven": 3884,
      "iskers": 3885,
      "night": 3886,
      "ĠdidnÃ¢": 3887,
      "Ġart": 3888,
      "Ġholes": 3889,
      "Ġeras": 3890,
      "Ġluck": 3891,
      "Ġonion": 3892,
      "Ġthief": 3893,
      "Ġspir": 3894,
      "Ġpaid": 3895,
      "Ġvisited": 3896,
      "Ġzoomed": 3897,
      "ĠBrownie": 3898,
      "Ġlear": 3899,
      "Ġlistening": 3900,
      "Ġbehave": 3901,
      "Ġtriang": 3902,
      "Ġcostume": 3903,
      "Ġbicycle": 3904,
      "stic": 3905,
      "Ġscold": 3906,
      "Ġbarking": 3907,
      "Ġstretch": 3908,
      "Ġlearnt": 3909,
      "Ġshort": 3910,
      "Ġpulls": 3911,
      "Ġcrystal": 3912,
      "az": 3913,
      "ube": 3914,
      "aled": 3915,
      "Ġlightning": 3916,
      "Ġobser": 3917,
      "Ġspeak": 3918,
      "ci": 3919,
      "render": 3920,
      "Ġcase": 3921,
      "Ġlip": 3922,
      "Ġended": 3923,
      "ebook": 3924,
      "ooped": 3925,
      "Ġkay": 3926,
      "ĠJerry": 3927,
      "Give": 3928,
      "eer": 3929,
      "Ġnotebook": 3930,
      "Ġbreat": 3931,
      "Ġtroubled": 3932,
      "hino": 3933,
      "Ġten": 3934,
      "Ġpor": 3935,
      "Ġhadn": 3936,
      "Ġsort": 3937,
      "Ġswinging": 3938,
      "Ġmixer": 3939,
      "Ġshopkeeper": 3940,
      "Ġsummer": 3941,
      "astic": 3942,
      "iastic": 3943,
      "Ġhoping": 3944,
      "olin": 3945,
      "Ġshrimp": 3946,
      "Ġshelter": 3947,
      "Ġenthusiastic": 3948,
      "Ġcauliflower": 3949,
      "ĠRed": 3950,
      "Ġfive": 3951,
      "kelet": 3952,
      "Ġprov": 3953,
      "Ġfilm": 3954,
      "Daisy": 3955,
      "Ġpeach": 3956,
      "Ġcomet": 3957,
      "iling": 3958,
      "ĠSandy": 3959,
      "ucked": 3960,
      "Ġdishes": 3961,
      "arlie": 3962,
      "Ġfrowned": 3963,
      "reci": 3964,
      "Ġtripped": 3965,
      "Ġpoint": 3966,
      "Ġrespectful": 3967,
      "Ġenergy": 3968,
      "Bye": 3969,
      "Ġcelery": 3970,
      "Ġpipe": 3971,
      "Ġstrugg": 3972,
      "Ġmonkeys": 3973,
      "Ġquar": 3974,
      "Ġpair": 3975,
      "Ġmarched": 3976,
      "Ġsailor": 3977,
      "Ġrepair": 3978,
      "happy": 3979,
      "Ġtube": 3980,
      "Ġrhino": 3981,
      "Ġreind": 3982,
      "Ġwallet": 3983,
      "Ġspirit": 3984,
      "keleton": 3985,
      "Ġdive": 3986,
      "Ġpad": 3987,
      "Ġgro": 3988,
      "Ġbuzz": 3989,
      "Ġevening": 3990,
      "Ġappreci": 3991,
      "Ġfireman": 3992,
      "Ġairport": 3993,
      "Ġgrapes": 3994,
      "Ġeither": 3995,
      "Ġyach": 3996,
      "Ġclimbing": 3997,
      "Ġants": 3998,
      "Ġfort": 3999,
      "Ġpushes": 4000,
      "Ġrescue": 4001,
      "Ġtrains": 4002,
      "Ġdrawings": 4003,
      "Ġunlock": 4004,
      "Ġeraser": 4005,
      "azz": 4006,
      "Ġtax": 4007,
      "Ġtemp": 4008,
      "Ġped": 4009,
      "agg": 4010,
      "anda": 4011,
      "Ġtricks": 4012,
      "Ġraining": 4013,
      "Ġlions": 4014,
      "âĤ¬âĢľ": 4015,
      "Ġribb": 4016,
      "Ġthanks": 4017,
      "ron": 4018,
      "Ġiron": 4019,
      "enry": 4020,
      "Ġreef": 4021,
      "Ġmeat": 4022,
      "Ġbubble": 4023,
      "Ġmild": 4024,
      "Ġchecked": 4025,
      "Ġsurrender": 4026,
      "Ġloop": 4027,
      "Ġincl": 4028,
      "Ġstuffed": 4029,
      "Ġreindeer": 4030,
      "Ġyacht": 4031,
      "Ġskeleton": 4032,
      "Ġboots": 4033,
      "ĠTr": 4034,
      "Ġfinds": 4035,
      "Ġbears": 4036,
      "Ġbikes": 4037,
      "Ġlid": 4038,
      "anic": 4039,
      "Ġstom": 4040,
      "ĠMillie": 4041,
      "Ġcomplete": 4042,
      "ĠWhiskers": 4043,
      "Ġinsist": 4044,
      "chanic": 4045,
      "Ġvest": 4046,
      "Ġunhappy": 4047,
      "Ġstrawberry": 4048,
      "Ġleaned": 4049,
      "Ġtaxi": 4050,
      "Jenny": 4051,
      "ected": 4052,
      "Ġsweetheart": 4053,
      "Ġknot": 4054,
      "Ġvide": 4055,
      "sely": 4056,
      "reeze": 4057,
      "Ġallig": 4058,
      "Ġalive": 4059,
      "Ġchalk": 4060,
      "Ġsunset": 4061,
      "Ġappl": 4062,
      "Ġgrabs": 4063,
      "Ġtheater": 4064,
      "Ġsandbox": 4065,
      "angu": 4066,
      "Ġfle": 4067,
      "Ġlangu": 4068,
      "Ġmechanic": 4069,
      "Ġputting": 4070,
      "Ġskill": 4071,
      "Ġcube": 4072,
      "ĠPapa": 4073,
      "Ġshovel": 4074,
      "Ġsprink": 4075,
      "ĠSnow": 4076,
      "cast": 4077,
      "ccer": 4078,
      "eath": 4079,
      "ĠWould": 4080,
      "ĠRos": 4081,
      "ĠBunny": 4082,
      "ecause": 4083,
      "Daddy": 4084,
      "Ġsoccer": 4085,
      "icer": 4086,
      "Ġhaircut": 4087,
      "Ġfields": 4088,
      "Ġcable": 4089,
      "Ġbelt": 4090,
      "Ġstrip": 4091,
      "erc": 4092,
      "Ġsock": 4093,
      "Ġmarry": 4094,
      "Ġfisher": 4095,
      "ckey": 4096,
      "ĠLee": 4097,
      "Ġhockey": 4098,
      "Ġclosely": 4099,
      "Ġsaus": 4100,
      "Ġlaund": 4101,
      "Ġglove": 4102,
      "Ġsandcast": 4103,
      "Ġporch": 4104,
      "Ġmen": 4105,
      "ison": 4106,
      "Ġsheet": 4107,
      "Ġlime": 4108,
      "Ġapologized": 4109,
      "Ġlaundry": 4110,
      "Ġbul": 4111,
      "Ġwelcomed": 4112,
      "Ġcreated": 4113,
      "Ġperfectly": 4114,
      "ĠMaria": 4115,
      "Ġpeek": 4116,
      "edy": 4117,
      "play": 4118,
      "mand": 4119,
      "Ġpapers": 4120,
      "icop": 4121,
      "achel": 4122,
      "icopter": 4123,
      "Ha": 4124,
      "stead": 4125,
      "Ġweather": 4126,
      "Ġkitty": 4127,
      "Ġsoftly": 4128,
      "Ġpress": 4129,
      "Ġmama": 4130,
      "Ġrag": 4131,
      "Ġquit": 4132,
      "Ġraft": 4133,
      "Ġdisag": 4134,
      "Ġdiary": 4135,
      "Ġmotorcycle": 4136,
      "Ġkayak": 4137,
      "ĠSophie": 4138,
      "Ġshade": 4139,
      "Ġseeing": 4140,
      "ceros": 4141,
      "Ġoyster": 4142,
      "aggie": 4143,
      "Ġbulb": 4144,
      "any": 4145,
      "ĠRo": 4146,
      "Ġhelicopter": 4147,
      "Ġcrib": 4148,
      "Ġbur": 4149,
      "Ġpoem": 4150,
      "Ġblowing": 4151,
      "ween": 4152,
      "Ġrever": 4153,
      "Ġexerc": 4154,
      "Ġsneak": 4155,
      "Ġnapkin": 4156,
      "Ġattention": 4157,
      "Ġmedal": 4158,
      "Ġbetween": 4159,
      "chair": 4160,
      "Ġmule": 4161,
      "Ġjudge": 4162,
      "Ġtuna": 4163,
      "affe": 4164,
      "Ġwaving": 4165,
      "Ġlend": 4166,
      "ides": 4167,
      "ÅĵYou": 4168,
      "Ġcelebrated": 4169,
      "Grandma": 4170,
      "ories": 4171,
      "Ġdisplay": 4172,
      "Ġfalling": 4173,
      "Ġrhinoceros": 4174,
      "bul": 4175,
      "Ġlie": 4176,
      "seum": 4177,
      "Ġvend": 4178,
      "Ġpastry": 4179,
      "Ġphoto": 4180,
      "Ġpal": 4181,
      "Ġkingdom": 4182,
      "Ġmuseum": 4183,
      "Ġshouldn": 4184,
      "Ġhotel": 4185,
      "Ġchickens": 4186,
      "Ġsoil": 4187,
      "Ġbaking": 4188,
      "gen": 4189,
      "ito": 4190,
      "Ġrot": 4191,
      "Ġpole": 4192,
      "Ġsteak": 4193,
      "Ġarmchair": 4194,
      "Ġcounter": 4195,
      "Ġpetals": 4196,
      "Ġpowder": 4197,
      "Ġaer": 4198,
      "opl": 4199,
      "Ġsmells": 4200,
      "Ġaeropl": 4201,
      "una": 4202,
      "Ġtwink": 4203,
      "Ġbasketball": 4204,
      "Ġpage": 4205,
      "Ġpanda": 4206,
      "Ġfisherman": 4207,
      "Ġfreez": 4208,
      "Ġfishing": 4209,
      "Ġquarrel": 4210,
      "Ġinse": 4211,
      "Ġcane": 4212,
      "rosc": 4213,
      "Ġgolden": 4214,
      "Ġfeelings": 4215,
      "Ġtrail": 4216,
      "Ġminute": 4217,
      "Ġcardboard": 4218,
      "Ġviolin": 4219,
      "Ġgrocer": 4220,
      "Ġalligator": 4221,
      "ges": 4222,
      "unately": 4223,
      "Ġbreaks": 4224,
      "Ġradish": 4225,
      "Ġmicrosc": 4226,
      "Ġgiraffe": 4227,
      "Ġoil": 4228,
      "ense": 4229,
      "ĠWill": 4230,
      "Ġwife": 4231,
      "Ġfrogs": 4232,
      "Ġwinter": 4233,
      "Inside": 4234,
      "Ġglowing": 4235,
      "..": 4236,
      "quito": 4237,
      "Ġshoulder": 4238,
      "Ġpalace": 4239,
      "Ġmicroscope": 4240,
      "Ġstable": 4241,
      "Ġvet": 4242,
      "Ġtear": 4243,
      "Ġpresents": 4244,
      "ĠLilly": 4245,
      "Ġcups": 4246,
      "Ġimagine": 4247,
      "Ġdiscu": 4248,
      "Ġdrops": 4249,
      "Ġvendor": 4250,
      "ait": 4251,
      "eve": 4252,
      "Ġhut": 4253,
      "Ġflies": 4254,
      "Ġpassport": 4255,
      "Ġmemories": 4256,
      "Ġlawy": 4257,
      "Ġslept": 4258,
      "iture": 4259,
      "Ġshakes": 4260,
      "Ġchirp": 4261,
      "Ġflame": 4262,
      "urniture": 4263,
      "Ġheaded": 4264,
      "Ġforgotten": 4265,
      "Ġsailing": 4266,
      "iday": 4267,
      "Ġfauc": 4268,
      "Ġheads": 4269,
      "Ġeagerly": 4270,
      "Ġbananas": 4271,
      "Emma": 4272,
      "Ġfurniture": 4273,
      "Ġmos": 4274,
      "Ġplanet": 4275,
      "Ġrubber": 4276,
      "Ġswung": 4277,
      "Ġjourn": 4278,
      "Ġimagination": 4279,
      "Ġtoil": 4280,
      "aud": 4281,
      "Ġmaze": 4282,
      "Ġcherries": 4283,
      "inarian": 4284,
      "Ġoffer": 4285,
      "Ġtrave": 4286,
      "Ġambul": 4287,
      "eterinarian": 4288,
      "Ġbarks": 4289,
      "Ġmosquito": 4290,
      "ĠHarry": 4291,
      "low": 4292,
      "Ġtub": 4293,
      "ero": 4294,
      "imney": 4295,
      "Ġplayer": 4296,
      "Ġveterinarian": 4297,
      "ĠdonÃ¢": 4298,
      "Ġcrow": 4299,
      "Ġaccepted": 4300,
      "Ġskull": 4301,
      "Ġskirt": 4302,
      "Ġsprayed": 4303,
      "Today": 4304,
      "Ġjellyfish": 4305,
      "Ġfaucet": 4306,
      "Ġbreeze": 4307,
      "place": 4308,
      "Ġshower": 4309,
      "Ġdancer": 4310,
      "Ġceiling": 4311,
      "Ġavocado": 4312,
      "Ġstaff": 4313,
      "Ġchimney": 4314,
      "Ġmystery": 4315,
      "Ġplastic": 4316,
      "izes": 4317,
      "ippery": 4318,
      "ĠUn": 4319,
      "Ġflea": 4320,
      "Ġlanguage": 4321,
      "Ġtoilet": 4322,
      "Eventually": 4323,
      "Ġdressed": 4324,
      "Ġstraight": 4325,
      "Ġtriangle": 4326,
      "Next": 4327,
      "liday": 4328,
      "ues": 4329,
      "Ġholiday": 4330,
      "Ġslippery": 4331,
      "Ġmagaz": 4332,
      "Ġjournal": 4333,
      "Ch": 4334,
      "Ġlives": 4335,
      "urch": 4336,
      "Ġbaseball": 4337,
      "Ġambulance": 4338,
      "tress": 4339,
      "Ġreve": 4340,
      "Ġmattress": 4341,
      "Ġlawyer": 4342,
      "nger": 4343,
      "ĠKate": 4344,
      "elcome": 4345,
      "Ġmop": 4346,
      "Ġshouting": 4347,
      "ngth": 4348,
      "ĠInstead": 4349,
      "Ġstud": 4350,
      "Ġignored": 4351,
      "Ġcheek": 4352,
      "Ġstrength": 4353,
      "Ġinvest": 4354,
      "Ġitch": 4355,
      "Ġink": 4356,
      "ents": 4357,
      "rod": 4358,
      "Ġintrod": 4359,
      "Ġaeroplane": 4360,
      "Ġpine": 4361,
      "bbie": 4362,
      "Ġprevent": 4363,
      "Ġattach": 4364,
      "Ġrelaxed": 4365,
      "Ġseparate": 4366,
      "Ġapplaud": 4367,
      "Ġinvestig": 4368,
      "Ġsince": 4369,
      "Ġseas": 4370,
      "Ġworth": 4371,
      "Ġbury": 4372,
      "Ġcollected": 4373,
      "Ġclassroom": 4374,
      "uby": 4375,
      "Ġble": 4376,
      "Ġlawn": 4377,
      "ĠBaby": 4378,
      "Together": 4379,
      "Ġpirates": 4380,
      "ĠRosie": 4381,
      "Ġinf": 4382,
      "asis": 4383,
      "Ġbouncing": 4384,
      "Ġpuddles": 4385,
      "Ġsurround": 4386,
      "case": 4387,
      "asher": 4388,
      "washer": 4389,
      "Ġhar": 4390,
      "Ġsque": 4391,
      "anges": 4392,
      "Ġpinch": 4393,
      "Ġsung": 4394,
      "Ġfireplace": 4395,
      "Ġmarried": 4396,
      "Ġmeeting": 4397,
      "Ġdishwasher": 4398,
      "Ġyogurt": 4399,
      "lass": 4400,
      "Ġhappens": 4401,
      "Ġfog": 4402,
      "Ġbelongs": 4403,
      "ĠOr": 4404,
      "Ġwool": 4405,
      "Ġweep": 4406,
      "Ġburned": 4407,
      "Ġhanging": 4408,
      "Ġoasis": 4409,
      "Ġwriting": 4410,
      "Ġsquirrels": 4411,
      "Ġmistakes": 4412,
      "Ġwhisper": 4413,
      "ĠAnnie": 4414,
      "Ġpopped": 4415,
      "Ġmoves": 4416,
      "Ġargue": 4417,
      "Ġsniffed": 4418,
      "ives": 4419,
      "Ġaut": 4420,
      "ĠSu": 4421,
      "Ġyield": 4422,
      "Ġcob": 4423,
      "iately": 4424,
      "te": 4425,
      "Ġsir": 4426,
      "Your": 4427,
      "reek": 4428,
      "Ġdoors": 4429,
      "mediately": 4430,
      "Ġnovel": 4431,
      "ssible": 4432,
      "Ġflapped": 4433,
      "Ġgrin": 4434,
      "orses": 4435,
      "Ġfreezer": 4436,
      "Because": 4437,
      "Ġcreek": 4438,
      "ĠTony": 4439,
      "Ġgym": 4440,
      "une": 4441,
      "ĠBun": 4442,
      "Ġimprove": 4443,
      "chie": 4444,
      "Ġinvestigate": 4445,
      "Ġhorses": 4446,
      "ĠSee": 4447,
      "Ġpoke": 4448,
      "Ġward": 4449,
      "Ġsteam": 4450,
      "Ġblankets": 4451,
      "Ġthrowing": 4452,
      "web": 4453,
      "Ġchoice": 4454,
      "Ġscolded": 4455,
      "Ġwardrobe": 4456,
      "Ġpra": 4457,
      "Ġchess": 4458,
      "Thanks": 4459,
      "Ġhopes": 4460,
      "Ġbelow": 4461,
      "Ġparent": 4462,
      "ler": 4463,
      "ising": 4464,
      "Ġknown": 4465,
      "Ġagre": 4466,
      "Ġpoints": 4467,
      "Ġalarm": 4468,
      "Ġnews": 4469,
      "Ġcrawling": 4470,
      "Ġinsect": 4471,
      "ĠIÃ¢": 4472,
      "hero": 4473,
      "Ġzipper": 4474,
      "hic": 4475,
      "Ġpit": 4476,
      "Ġeaten": 4477,
      "Ġdear": 4478,
      "Ġentered": 4479,
      "Ġfolder": 4480,
      "Ġscrew": 4481,
      "Ġsuperhero": 4482,
      "imi": 4483,
      "ĠitÃ¢": 4484,
      "Ġrequ": 4485,
      "Ġquack": 4486,
      "Ġappro": 4487,
      "Ġvehic": 4488,
      "Ġcrossed": 4489,
      "ites": 4490,
      "chor": 4491,
      "Ġgreedy": 4492,
      "Ġsticky": 4493,
      "ÅĵItÃ¢": 4494,
      "Ġpenguin": 4495,
      "Ġcobweb": 4496,
      "right": 4497,
      "Ġwigg": 4498,
      "Ġcomplain": 4499,
      "house": 4500,
      "ĠJul": 4501,
      "Ġfactor": 4502,
      "Ġmustache": 4503,
      "Ġthrows": 4504,
      "lasses": 4505,
      "men": 4506,
      "vision": 4507,
      "Ġig": 4508,
      "Ġamazement": 4509,
      "ĠRachel": 4510,
      "Ġapart": 4511,
      "Ġsunglasses": 4512,
      "Ġigloo": 4513,
      "inked": 4514,
      "Ġchurch": 4515,
      "rs": 4516,
      "Ġstro": 4517,
      "Ġminer": 4518,
      "Ġsqueezed": 4519,
      "Ġherb": 4520,
      "ety": 4521,
      "Ġrake": 4522,
      "Ġopera": 4523,
      "Ġconf": 4524,
      "Ġsplashing": 4525,
      "Ġfactory": 4526,
      "Ġcared": 4527,
      "Ġfiref": 4528,
      "fortunately": 4529,
      "Ġregret": 4530,
      "ĠBet": 4531,
      "Ġairpl": 4532,
      "Ġveil": 4533,
      "Ġshrugged": 4534,
      "Ġfile": 4535,
      "Ġwipe": 4536,
      "mend": 4537,
      "rm": 4538,
      "Ġshrink": 4539,
      "Ġtelevision": 4540,
      "sit": 4541,
      "Ġfought": 4542,
      "Ġcell": 4543,
      "ores": 4544,
      "Ġboot": 4545,
      "Ġpear": 4546,
      "ups": 4547,
      "Ġrequest": 4548,
      "Ġbother": 4549,
      "omob": 4550,
      "Ġoak": 4551,
      "aces": 4552,
      "Ġfloat": 4553,
      "ring": 4554,
      "Ġthumb": 4555,
      "Ġswamp": 4556,
      "Ġincre": 4557,
      "Ġautomob": 4558,
      "mm": 4559,
      "ommend": 4560,
      "Ġbookcase": 4561,
      "Ġdemand": 4562,
      "Ġquietly": 4563,
      "ab": 4564,
      "lier": 4565,
      "Ġsuff": 4566,
      "Ġtherm": 4567,
      "Ġcaring": 4568,
      "Ġrecommend": 4569,
      "Ġanchor": 4570,
      "Ġknob": 4571,
      "Ġrail": 4572,
      "Mandy": 4573,
      "ĠJess": 4574,
      "Ġgrill": 4575,
      "Ġrooms": 4576,
      "Ġsparkle": 4577,
      "aw": 4578,
      "Ġsizes": 4579,
      "Ġpur": 4580,
      "atie": 4581,
      "Ġvac": 4582,
      "Ġringing": 4583,
      "Ġsqueeze": 4584,
      "'.": 4585,
      "Ġtucked": 4586,
      "ĠHelp": 4587,
      "Ġraz": 4588,
      "Ġsparkling": 4589,
      "Ġeasily": 4590,
      "Ġyoga": 4591,
      "Ġweigh": 4592,
      "Ġagree": 4593,
      "Sammy": 4594,
      "Ġsupply": 4595,
      "ĠGod": 4596,
      "uckily": 4597,
      "Ġblinked": 4598,
      "Ġthermomet": 4599,
      "amber": 4600,
      "Ġspear": 4601,
      "Ġsurprises": 4602,
      "Ġdelay": 4603,
      "Ġsafety": 4604,
      "ĠCharlie": 4605,
      "Ġrefre": 4606,
      "nam": 4607,
      "Ġhelper": 4608,
      "Ġblackboard": 4609,
      "Ġlemonade": 4610,
      "omes": 4611,
      "Ġmakeup": 4612,
      "Ġhills": 4613,
      "tain": 4614,
      "Ġbravely": 4615,
      "Ġunif": 4616,
      "Ġspending": 4617,
      "ĠTrue": 4618,
      "Ġvideo": 4619,
      "vet": 4620,
      "Ġtrusted": 4621,
      "Ġwandered": 4622,
      "Ġwags": 4623,
      "ĠDanny": 4624,
      "Ġlaught": 4625,
      "Ġmagazine": 4626,
      "Ġtug": 4627,
      "Ġhurting": 4628,
      "Ġteleph": 4629,
      "Ann": 4630,
      "Wait": 4631,
      "raged": 4632,
      "Ġmusician": 4633,
      "Ġvanished": 4634,
      "Ġcherry": 4635,
      "Ġjunk": 4636,
      "Ġearlier": 4637,
      "Ġthermometer": 4638,
      "Ġuniform": 4639,
      "cakes": 4640,
      "Ġreaches": 4641,
      "Ġquiz": 4642,
      "Ġletting": 4643,
      "Ġfallen": 4644,
      "Ġdisappear": 4645,
      "Ġmint": 4646,
      "Ġbattery": 4647,
      "Ġlaughter": 4648,
      "Ġtelephone": 4649,
      "Ġwaste": 4650,
      "ĠTed": 4651,
      "Ġsaving": 4652,
      "icing": 4653,
      "Ġcliff": 4654,
      "bor": 4655,
      "oral": 4656,
      "fume": 4657,
      "Ġprop": 4658,
      "Ġornam": 4659,
      "Ġraise": 4660,
      "Ġkisses": 4661,
      "Ġticket": 4662,
      "Ġtemple": 4663,
      "Ġisn": 4664,
      "Ġfastest": 4665,
      "Ġkeeping": 4666,
      "Ġunderstanding": 4667,
      "Ġapron": 4668,
      "Ġdestination": 4669,
      "Ġrazor": 4670,
      "ived": 4671,
      "Ġport": 4672,
      "Ġspade": 4673,
      "Ġhardly": 4674,
      "Ġflutter": 4675,
      "Ġskills": 4676,
      "Ġtoes": 4677,
      "Ġberry": 4678,
      "Ġyucky": 4679,
      "Ġperfume": 4680,
      "Ġcastles": 4681,
      "Ġbeef": 4682,
      "Ġserve": 4683,
      "Ġstrawberries": 4684,
      "Ġsettled": 4685,
      "ction": 4686,
      "Did": 4687,
      "Ġitem": 4688,
      "Ġrise": 4689,
      "ĠNext": 4690,
      "Ġmailman": 4691,
      "Ġprepare": 4692,
      "Ġinfant": 4693,
      "ĠEach": 4694,
      "Ġpoked": 4695,
      "Ġimmediately": 4696,
      "Ġfollowing": 4697,
      "ggy": 4698,
      "ĠClara": 4699,
      "Ġexperience": 4700,
      "ium": 4701,
      "Ġtong": 4702,
      "Ġdire": 4703,
      "Ġpalm": 4704,
      "Ġchamber": 4705,
      "Ġkneel": 4706,
      "Ġmuffin": 4707,
      "Ġvroom": 4708,
      "Ġchairs": 4709,
      "Ġinstr": 4710,
      "Ġscattered": 4711,
      "Ġharbor": 4712,
      "Ġlotion": 4713,
      "Ġoranges": 4714,
      "Ġremove": 4715,
      "Ġfollows": 4716,
      "Ġcabinet": 4717,
      "Ġdried": 4718,
      "âĤ¬.": 4719,
      "Ġcrash": 4720,
      "Ġhearts": 4721,
      "Ġblueberries": 4722,
      "Ġtut": 4723,
      "Ġweap": 4724,
      "ĠJames": 4725,
      "Ġleak": 4726,
      "Ġdresses": 4727,
      "Ġautomobile": 4728,
      "Ġwine": 4729,
      "ĠIts": 4730,
      "Ġwarmth": 4731,
      "Ġspots": 4732,
      "With": 4733,
      "Will": 4734,
      "Ġcalls": 4735,
      "Ġenter": 4736,
      "ĠSnowy": 4737,
      "Ġpraised": 4738,
      "Ġburied": 4739,
      "Ġgrowled": 4740,
      "Ġreverse": 4741,
      "Ġtrade": 4742,
      "Ġclaws": 4743,
      "ampoo": 4744,
      "Ġsnap": 4745,
      "Ġbeans": 4746,
      "Ġbeamed": 4747,
      "ĠWho": 4748,
      "Ġmatches": 4749,
      "Ġmoments": 4750,
      "Ġadmir": 4751,
      "Ġshooting": 4752,
      "sing": 4753,
      "ĠHenry": 4754,
      "Ġplates": 4755,
      "Ġscooped": 4756,
      "Ġcoal": 4757,
      "Ġpuzzles": 4758,
      "Qu": 4759,
      "ib": 4760,
      "Ġremain": 4761,
      "Ġfloating": 4762,
      "Ġvacation": 4763,
      "Ġpist": 4764,
      "Ġpride": 4765,
      "asp": 4766,
      "izard": 4767,
      "Ġbrain": 4768,
      "Ġpistol": 4769,
      "ah": 4770,
      "Ġdaisy": 4771,
      "lend": 4772,
      "sters": 4773,
      "alley": 4774,
      "Ġpoison": 4775,
      "Ġideas": 4776,
      "Ġexercise": 4777,
      "Ġlumber": 4778,
      "Ġpanic": 4779,
      "Is": 4780,
      "Ġsigh": 4781,
      "aped": 4782,
      "ival": 4783,
      "Welcome": 4784,
      "Ġrow": 4785,
      "ionary": 4786,
      "Ġmass": 4787,
      "osity": 4788,
      "Ġsimp": 4789,
      "anna": 4790,
      "Ġcalend": 4791,
      "Ġignore": 4792,
      "Ġbalan": 4793,
      "Ġcuddled": 4794,
      "ictionary": 4795,
      "Ġshampoo": 4796,
      "Ġdrain": 4797,
      "Ġdestroyed": 4798,
      "Ġcalendar": 4799,
      "Ġpages": 4800,
      "Ġmyself": 4801,
      "Lisa": 4802,
      "Ġachie": 4803,
      "Ġdictionary": 4804,
      "ĠMay": 4805,
      "Ġvalley": 4806,
      "Ġdifferen": 4807,
      "Ġrestore": 4808,
      "Ġyawned": 4809,
      "Ġribbon": 4810,
      "Peter": 4811,
      "big": 4812,
      "Ġga": 4813,
      "Ġrabbits": 4814,
      "Ġtaller": 4815,
      "Ġworms": 4816,
      "Ġcandles": 4817,
      "Ġjewelry": 4818,
      "omeday": 4819,
      "'ve": 4820,
      "osed": 4821,
      "ari": 4822,
      "Ġinclud": 4823,
      "Ġairplane": 4824,
      "Ġjazz": 4825,
      "ĠSpike": 4826,
      "Ġmelted": 4827,
      "Ġwaffle": 4828,
      "Ġinsisted": 4829,
      "Ġequ": 4830,
      "Ġstad": 4831,
      "ĠKing": 4832,
      "Ġapproached": 4833,
      "Ġstadium": 4834,
      "Ġdigg": 4835,
      "Ġgear": 4836,
      "Ġsnapped": 4837,
      "Ġcaptain": 4838,
      "Ġwashing": 4839,
      "Ġlicks": 4840,
      "ission": 4841,
      "Ġdigging": 4842,
      "Jen": 4843,
      "ls": 4844,
      "Ġsty": 4845,
      "Ġstruc": 4846,
      "Ġpermission": 4847,
      "bigail": 4848,
      "Ġstructure": 4849,
      "Ġbill": 4850,
      "Ġhomes": 4851,
      "Ġfest": 4852,
      "ĠJoy": 4853,
      "ĠCo": 4854,
      "Ġmissile": 4855,
      "Ġpatiently": 4856,
      "nies": 4857,
      "riger": 4858,
      "ĠMiss": 4859,
      "ĠMimi": 4860,
      "xture": 4861,
      "Ġfloated": 4862,
      "Ġinvite": 4863,
      "Ġrefriger": 4864,
      "Ġmeasured": 4865,
      "Ġrefrigerator": 4866,
      "Ġwizard": 4867,
      "ishing": 4868,
      "Ġsandcastle": 4869,
      "Ġsomeday": 4870,
      "Ġbegged": 4871,
      "Ġshot": 4872,
      "ĠDan": 4873,
      "antly": 4874,
      "Ġplanes": 4875,
      "Ġsub": 4876,
      "ĠBefore": 4877,
      "Ġweeks": 4878,
      "Ġvehicle": 4879,
      "Ġcrunch": 4880,
      "ĠRuby": 4881,
      "Ġbelieved": 4882,
      "ĠFreddy": 4883,
      "Ġsetting": 4884,
      "Ġsigns": 4885,
      "Ġreceived": 4886,
      "Ġres": 4887,
      "Ġalright": 4888,
      "ĠSteve": 4889,
      "Ġtongue": 4890,
      "Ġtutor": 4891,
      "Yuck": 4892,
      "Ġnone": 4893,
      "Ġexamine": 4894,
      "Ġfuel": 4895,
      "Ġstruggling": 4896,
      "All": 4897,
      "Ġsport": 4898,
      "Ġblood": 4899,
      "Ġteaching": 4900,
      "Ġsolved": 4901,
      "Ġsneeze": 4902,
      "Ġbumped": 4903,
      "Ġolive": 4904,
      "ops": 4905,
      "inky": 4906,
      "Ġmodel": 4907,
      "Ġscratch": 4908,
      "Fl": 4909,
      "Ġhers": 4910,
      "Ġblouse": 4911,
      "Ġparts": 4912,
      "Ġencouraged": 4913,
      "Ġbreathe": 4914,
      "Ġdiscuss": 4915,
      "Ġshed": 4916,
      "Ġchores": 4917,
      "Ġthrilled": 4918,
      "ĠRe": 4919,
      "Ġcoats": 4920,
      "Ġjewels": 4921,
      "Ġgrape": 4922,
      "Ġappreciate": 4923,
      "Ġtide": 4924,
      "Ġinvit": 4925,
      "ĠV": 4926,
      "Ġtore": 4927,
      "Ġlily": 4928,
      "Ġmention": 4929,
      "Ġplays": 4930,
      "Ġhits": 4931,
      "Ġbuzzing": 4932,
      "Ġchirping": 4933,
      "fy": 4934,
      "Ġdare": 4935,
      "Ġscore": 4936,
      "ĠPenny": 4937,
      "Ġpaused": 4938,
      "Ġpulling": 4939,
      "Johnny": 4940,
      "Ġbookshe": 4941,
      "Ġdeeper": 4942,
      "Ġbathe": 4943,
      "Ġcollecting": 4944,
      "Ġmarbles": 4945,
      "Ġbleed": 4946,
      "Ġbang": 4947,
      "Ġgust": 4948,
      "Ġunite": 4949,
      "Ġsparkles": 4950,
      "Ġstomach": 4951,
      "Ġnation": 4952,
      "Ġupstairs": 4953,
      "Ġprovide": 4954,
      "Ġsew": 4955,
      "Ġsupposed": 4956,
      "Ġburning": 4957,
      "Ġpunish": 4958,
      "Ġsausage": 4959,
      "Ġdifference": 4960,
      "Mark": 4961,
      "Ġjail": 4962,
      "Ġcub": 4963,
      "Ġclimbs": 4964,
      "iers": 4965,
      "htray": 4966,
      "Ġashtray": 4967,
      "Ġsunlight": 4968,
      "ĠEveryday": 4969,
      "Ġglowed": 4970,
      "ÅĵNo": 4971,
      "Ġattached": 4972,
      "Ġneighborhood": 4973,
      "fied": 4974,
      "uggage": 4975,
      "Ġlabel": 4976,
      "Ġtornado": 4977,
      "Ġfestival": 4978,
      "Not": 4979,
      "Ġluggage": 4980,
      "Ġwhip": 4981,
      "Ġnewsp": 4982,
      "ĠBuzz": 4983,
      "ĠPeople": 4984,
      "Ġreplace": 4985,
      "Ġwhistling": 4986,
      "Ġnewspap": 4987,
      "ĠHave": 4988,
      "allen": 4989,
      "Ġgirls": 4990,
      "Ġmanage": 4991,
      "ĠFo": 4992,
      "Ġjogging": 4993,
      "Ġteasp": 4994,
      "Ġwarning": 4995,
      "Ġteaspoon": 4996,
      "Ġhesit": 4997,
      "Ġeff": 4998,
      "These": 4999,
      "Ġlic": 5000,
      "ĠMaggie": 5001,
      "umble": 5002,
      "Ġbirdc": 5003,
      "Ġfasc": 5004,
      "Ġgifts": 5005,
      "Ġdiscovery": 5006,
      "Ġroot": 5007,
      "emember": 5008,
      "Ġtwisted": 5009,
      "Ġbookshelf": 5010,
      "Ġbirdcage": 5011,
      "act": 5012,
      "eed": 5013,
      "Ġmeowed": 5014,
      "Ġchallen": 5015,
      "Ġweapon": 5016,
      "Ġsip": 5017,
      "ĠTina": 5018,
      "Ġlaid": 5019,
      "Ġoper": 5020,
      "Ġcollection": 5021,
      "Ġcomfy": 5022,
      "Ġguy": 5023,
      "xy": 5024,
      "ĠLuna": 5025,
      "Ġdrinking": 5026,
      "Ġsafari": 5027,
      "Ġrush": 5028,
      "Ġsoldiers": 5029,
      "Ġbricks": 5030,
      "Ġrepeat": 5031,
      "Ġfut": 5032,
      "Ġemer": 5033,
      "ĠIs": 5034,
      "Ġranch": 5035,
      "Ġelephants": 5036,
      "Ġactually": 5037,
      "ities": 5038,
      "Ġstitch": 5039,
      "Ġremained": 5040,
      "Ġfuture": 5041,
      "Ġhanger": 5042,
      "Ġlick": 5043,
      "Ġchir": 5044,
      "Before": 5045,
      "bers": 5046,
      "Ġmall": 5047,
      "Ġgain": 5048,
      "Ġbeg": 5049,
      "Ġwatered": 5050,
      "Ġgrey": 5051,
      "ĠGood": 5052,
      "Ġsits": 5053,
      "Ġdecorations": 5054,
      "Ġawe": 5055,
      "Ġblueberry": 5056,
      "Ġmassage": 5057,
      "Ġfascin": 5058,
      "Ġchirped": 5059,
      "rise": 5060,
      "ĠLater": 5061,
      "Ġmeasuring": 5062,
      "do": 5063,
      "Ġscur": 5064,
      "Ġflood": 5065,
      "Ġcurled": 5066,
      "Ġurge": 5067,
      "Ġsprinkles": 5068,
      "Ġgrocery": 5069,
      "nie": 5070,
      "Ġbak": 5071,
      "Ġrhy": 5072,
      "Ġprayed": 5073,
      "allow": 5074,
      "Ġdecision": 5075,
      "ĠChirp": 5076,
      "Ġpatterns": 5077,
      "mother": 5078,
      "bbled": 5079,
      "ipment": 5080,
      "Ġwherever": 5081,
      "Ġcontain": 5082,
      "Ġbites": 5083,
      "Ġlicense": 5084,
      "Ġsore": 5085,
      "Ġwatches": 5086,
      "Ġfixing": 5087,
      "Ġsatis": 5088,
      "Ġbuildings": 5089,
      "Ġproblems": 5090,
      "Ġequipment": 5091,
      "oved": 5092,
      "Ġprice": 5093,
      "walk": 5094,
      "Ġtoe": 5095,
      "Ġfireworks": 5096,
      "Ġobserve": 5097,
      "Ok": 5098,
      "Ġcrunchy": 5099,
      "Ġfed": 5100,
      "Ġlect": 5101,
      "Ġworse": 5102,
      "Ġtease": 5103,
      "Ġraised": 5104,
      "Ġcrashed": 5105,
      "Ġeasier": 5106,
      "sity": 5107,
      "utty": 5108,
      "Ġsunrise": 5109,
      "Ġzero": 5110,
      "Ġvel": 5111,
      "Emily": 5112,
      "Ġnewspaper": 5113,
      "Ġcakes": 5114,
      "Ġsoared": 5115,
      "Ġinvitation": 5116,
      "Ġlecture": 5117,
      "Ġvelvet": 5118,
      "Mmm": 5119,
      "ude": 5120,
      "Ġduring": 5121,
      "Ġpigs": 5122,
      "Ġwhistled": 5123,
      "Ġsliding": 5124,
      "Ġmemory": 5125,
      "Ġsuffer": 5126,
      "\",": 5127,
      "Ġracing": 5128,
      "Ġpeanuts": 5129,
      "Ġreceive": 5130,
      "Ġgrinned": 5131,
      "Ġeffort": 5132,
      "!'": 5133,
      "ging": 5134,
      "Ġflav": 5135,
      "thm": 5136,
      "Ġsidewalk": 5137,
      "Ġbathrobe": 5138,
      "Ġstrang": 5139,
      "Ġclearing": 5140,
      "ÅĵThatÃ¢": 5141,
      "Ġrefreshed": 5142,
      "Ġmitten": 5143,
      "seek": 5144,
      "Ġtremb": 5145,
      "Ġpeered": 5146,
      "Ġzipped": 5147,
      "Ġplanted": 5148,
      "Ġearthqu": 5149,
      "Ġrecognized": 5150,
      "Ouch": 5151,
      "Ġbes": 5152,
      "Ġbeat": 5153,
      "Ġsocks": 5154,
      "Ġdoggy": 5155,
      "Ġskipping": 5156,
      "Ġappear": 5157,
      "Ġmarching": 5158,
      "ĠOllie": 5159,
      "Ġwre": 5160,
      "Ġwid": 5161,
      "Ġremem": 5162,
      "Ġturning": 5163,
      "Ġchewed": 5164,
      "Ġcartoons": 5165,
      "Ġsurrounded": 5166,
      "cles": 5167,
      "uing": 5168,
      "Ġwarn": 5169,
      "Ġbrick": 5170,
      "Ġsimple": 5171,
      "Ġbillboard": 5172,
      "cious": 5173,
      "Ġcompany": 5174,
      "Ġrespons": 5175,
      "Ġtracks": 5176,
      "Ġremembers": 5177,
      "Jake": 5178,
      "son": 5179,
      "Ġrust": 5180,
      "ĠMat": 5181,
      "Ġspit": 5182,
      "Ġbrus": 5183,
      "Ġhated": 5184,
      "Ġpastel": 5185,
      "ÅĵIÃ¢": 5186,
      "Ġhurric": 5187,
      "Ġrhythm": 5188,
      "oming": 5189,
      "Ġonwards": 5190,
      "aded": 5191,
      "Ġpossible": 5192,
      "Ġrested": 5193,
      "Ġbuckle": 5194,
      "Ġsnail": 5195,
      "Ġfirefight": 5196,
      "Ġheat": 5197,
      "Ġescaped": 5198,
      "Ġdinosaurs": 5199,
      "Ġadmiring": 5200,
      "Ġstrangers": 5201,
      "Ġleather": 5202,
      "Ġslice": 5203,
      "Ġordered": 5204,
      "Ġuniverse": 5205,
      "Ġoperation": 5206,
      "Ġhurricane": 5207,
      "Ġworks": 5208,
      "Ġlands": 5209,
      "Ġmountains": 5210,
      "Ġtomatoes": 5211,
      "Ġuniversity": 5212,
      "Ġmineral": 5213,
      "Ġpitch": 5214,
      "Ġhappiest": 5215,
      "Ġwanting": 5216,
      "!\",": 5217,
      "Ġours": 5218,
      "Ġcontinue": 5219,
      "Ġtwigs": 5220,
      "Ġdisagreed": 5221,
      "Ġbeside": 5222,
      "ĠMilly": 5223,
      "Ġhurried": 5224,
      "Moral": 5225,
      "Ġhate": 5226,
      "atch": 5227,
      "Ġnavy": 5228,
      "amie": 5229,
      "ĠMe": 5230,
      "Ġweren": 5231,
      "Ġrevealed": 5232,
      "Ġstyle": 5233,
      "loe": 5234,
      "Ġrained": 5235,
      "Ġperched": 5236,
      "Ġseats": 5237,
      "unday": 5238,
      "apping": 5239,
      "Ġobe": 5240,
      "Ġspaces": 5241,
      "Ġserved": 5242,
      "Ġfolded": 5243,
      "Ġprepared": 5244,
      "Ġoats": 5245,
      "Ġreminder": 5246,
      "Ġmenu": 5247,
      "ases": 5248,
      "Ġshopping": 5249,
      "Ġmouths": 5250,
      "Ġselling": 5251,
      "Ġagreement": 5252,
      "Ġearthquake": 5253,
      "cc": 5254,
      "adly": 5255,
      "Ġweight": 5256,
      "Ġpoppy": 5257,
      "Ġbrand": 5258,
      "Ġcrept": 5259,
      "Ġpracticing": 5260,
      "Would": 5261,
      "ĠSunday": 5262,
      "Ġkeeper": 5263,
      "Ġbringing": 5264,
      "Ġpupil": 5265,
      "hest": 5266,
      "Ġevent": 5267,
      "ddy": 5268,
      "ĠLiz": 5269,
      "Ġpaints": 5270,
      "Ġsecrets": 5271,
      "Ġcircus": 5272,
      "Ġwisdom": 5273,
      "Ġsings": 5274,
      "Ġfash": 5275,
      "Ġkindly": 5276,
      "Ġmonsters": 5277,
      "Ġanswers": 5278,
      "mble": 5279,
      "enty": 5280,
      "Ġeveryday": 5281,
      "Ġslip": 5282,
      "Ġpetted": 5283,
      "Ġdrinks": 5284,
      "Ġsettle": 5285,
      "Ġmister": 5286,
      "amb": 5287,
      "indy": 5288,
      "ĠFro": 5289,
      "Ġfamil": 5290,
      "ÅĵWe": 5291,
      "Ġspoons": 5292,
      "Sh": 5293,
      "Tweet": 5294,
      "Yum": 5295,
      "dam": 5296,
      "ĠAbigail": 5297,
      "Ġcopper": 5298,
      "Ġanytime": 5299,
      "Ġimage": 5300,
      "ĠNutty": 5301,
      "Ġcuriosity": 5302,
      "Ġswims": 5303,
      "Ġprecious": 5304,
      "Ġsneezed": 5305,
      "Ġobey": 5306,
      "Susie": 5307,
      "Ġbrings": 5308,
      "Ġrang": 5309,
      "Ġmuddy": 5310,
      "Ġtalent": 5311,
      "Ġguessed": 5312,
      "igz": 5313,
      "Ġspill": 5314,
      "Ġtrapped": 5315,
      "Ġcomple": 5316,
      "Ġvisiting": 5317,
      "len": 5318,
      "Ġbare": 5319,
      "Ġtremble": 5320,
      "Ġgotten": 5321,
      "Ġcutting": 5322,
      "Ġvillag": 5323,
      "Ġapologize": 5324,
      "Ġscratched": 5325,
      "Ġpotatoes": 5326,
      "Ġbeneath": 5327,
      "ĠSomeone": 5328,
      "Ro": 5329,
      "ĠTiny": 5330,
      "Ġpedal": 5331,
      "ĠBetsy": 5332,
      "Ġsubway": 5333,
      "Le": 5334,
      "tory": 5335,
      "Ġhistory": 5336,
      "Ġweighed": 5337,
      "Ġstruggled": 5338,
      "ĠZoe": 5339,
      "Ġpermit": 5340,
      "Ġolives": 5341,
      "Ready": 5342,
      "Ġitems": 5343,
      "Ex": 5344,
      "Ġx": 5345,
      "ĠJe": 5346,
      "Ġknelt": 5347,
      "Ġmeow": 5348,
      "Ġflap": 5349,
      "Ġbeds": 5350,
      "Ġwaits": 5351,
      "ĠKatie": 5352,
      "Ġfashion": 5353,
      "Ġcal": 5354,
      "Ġglitter": 5355,
      "Ġcreation": 5356,
      "ĠNot": 5357,
      "Ġpillows": 5358,
      "ding": 5359,
      "ley": 5360,
      "ĠHoppy": 5361,
      "Ġofficer": 5362,
      "ĠLetÃ¢": 5363,
      "Ġwaffles": 5364,
      "Really": 5365,
      "ĠChirpy": 5366,
      "terday": 5367,
      "anta": 5368,
      "izing": 5369,
      "Ġcatching": 5370,
      "Ġactiv": 5371,
      "Ġargued": 5372,
      "Ġsucceeded": 5373,
      "Ġcostumes": 5374,
      "Ġpadd": 5375,
      "neath": 5376,
      "Ġsix": 5377,
      "Ġbones": 5378,
      "Ġmice": 5379,
      "riage": 5380,
      "ĠCat": 5381,
      "Ġgrandmother": 5382,
      "Ġornament": 5383,
      "First": 5384,
      "Ġscoop": 5385,
      "Ġbowed": 5386,
      "Ġscreams": 5387,
      "Ġzooming": 5388,
      "Ġneighbourhood": 5389,
      "Ġfascinated": 5390,
      "Ġvillagers": 5391,
      "Dave": 5392,
      "uke": 5393,
      "Ġbun": 5394,
      "Ġarea": 5395,
      "ĠFirst": 5396,
      "Ġexamined": 5397,
      "looking": 5398,
      "Ġlips": 5399,
      "Fluffy": 5400,
      "Ġexact": 5401,
      "Ġlets": 5402,
      "Ġstudied": 5403,
      "Ġpeel": 5404,
      "Ġglo": 5405,
      "ĠCla": 5406,
      "joyed": 5407,
      "Ġshadows": 5408,
      "rin": 5409,
      "Ġsoaring": 5410,
      "Ġoverjoyed": 5411,
      "ÅĵThank": 5412,
      "Ġcomforted": 5413,
      "Ġpinched": 5414,
      "xygen": 5415,
      "Ġbegin": 5416,
      "Ġwaist": 5417,
      "etch": 5418,
      "Ġwhatever": 5419,
      "Ġpets": 5420,
      "Ġfreeze": 5421,
      "ĠHowever": 5422,
      "igzag": 5423,
      "Ġsitu": 5424,
      "Ġlemons": 5425,
      "Ġspaceship": 5426,
      "Ġgained": 5427,
      "Ġrides": 5428,
      "Ġencourage": 5429,
      "kins": 5430,
      "Ġdecides": 5431,
      "Ġvowed": 5432,
      "Ġtune": 5433,
      "ĠRemy": 5434,
      "omething": 5435,
      "Ġbrushed": 5436,
      "Ġsadness": 5437,
      "Ġdisturbed": 5438,
      "ĠSuzy": 5439,
      "Ġwreck": 5440,
      "Luckily": 5441,
      "ears": 5442,
      "gers": 5443,
      "Ġtip": 5444,
      "icorn": 5445,
      "Ġunicorn": 5446,
      "Ġbunnies": 5447,
      "Ġstruck": 5448,
      "ĠPoppy": 5449,
      "avid": 5450,
      "Andy": 5451,
      "Ġsting": 5452,
      "Ġoutdo": 5453,
      "Ġwooden": 5454,
      "Ġdrift": 5455,
      "Ġpancakes": 5456,
      "ien": 5457,
      "ĠOnce": 5458,
      "Ġallow": 5459,
      "Ġwond": 5460,
      "Ġaccidents": 5461,
      "Ġmarkers": 5462,
      "Ġeagle": 5463,
      "Ġsatisfied": 5464,
      "Ġlines": 5465,
      "Ġoxygen": 5466,
      "ays": 5467,
      "Ġneighbors": 5468,
      "ĠChr": 5469,
      "Ġrecognize": 5470,
      "Sometimes": 5471,
      "Ġripped": 5472,
      "ĠAm": 5473,
      "Ġaccom": 5474,
      "Ġspiders": 5475,
      "Ġnails": 5476,
      "ĠSharing": 5477,
      "Ġstripes": 5478,
      "ĠCoco": 5479,
      "Ġbleeding": 5480,
      "Ġgloves": 5481,
      "Ġbrid": 5482,
      "isten": 5483,
      "Ġpretti": 5484,
      "Ġunderground": 5485,
      "Ġguns": 5486,
      "Ġprettiest": 5487,
      "ales": 5488,
      "Ġtour": 5489,
      "ĠBeth": 5490,
      "Ġslapped": 5491,
      "Ġunderneath": 5492,
      "Ġrocked": 5493,
      "ĠBubbles": 5494,
      "Ġintroduc": 5495,
      "Ġexactly": 5496,
      "ĠAn": 5497,
      "Ġowned": 5498,
      "ĠSpark": 5499,
      "Ġdecorated": 5500,
      "Ġcaut": 5501,
      "ĠItÃ¢": 5502,
      "Ġloving": 5503,
      "Ġprune": 5504,
      "Ġdownstairs": 5505,
      "Ġbeha": 5506,
      "Ġtravell": 5507,
      "Ġinstruct": 5508,
      "Ġrele": 5509,
      "Ġlandsc": 5510,
      "Ġprotected": 5511,
      "Ġcuddle": 5512,
      "Ġacorns": 5513,
      "Ġbarely": 5514,
      "Ġrealize": 5515,
      "Ġvoices": 5516,
      "Ġprinter": 5517,
      "Ġtugged": 5518,
      "ÅĵDon": 5519,
      "Ġstretching": 5520,
      "Ġtwirling": 5521,
      "Ġstealing": 5522,
      "Ġemergen": 5523,
      "Ġdied": 5524,
      "Ġloose": 5525,
      "Ġsuitc": 5526,
      "Ġmission": 5527,
      "Ġbouncy": 5528,
      "Ġunlocked": 5529,
      "Ġpiles": 5530,
      "annah": 5531,
      "Ġaccompl": 5532,
      "Ġbridges": 5533,
      "zie": 5534,
      "ica": 5535,
      "Ġbye": 5536,
      "ÅĵLook": 5537,
      "Ġparked": 5538,
      "Ġsolut": 5539,
      "Ġtickets": 5540,
      "ĠUncle": 5541,
      "Ġchallenge": 5542,
      "Un": 5543,
      "Ġnicer": 5544,
      "Ġvict": 5545,
      "Ġfoods": 5546,
      "Ġyelling": 5547,
      "Ġladyb": 5548,
      "Ġplanned": 5549,
      "ĠFloppy": 5550,
      "âĤ¬âĢĿ": 5551,
      "ĠJulie": 5552,
      "Ġcompleted": 5553,
      "Ġbank": 5554,
      "ilo": 5555,
      "Ġsoak": 5556,
      "Ġexit": 5557,
      "ffic": 5558,
      "Ġtraffic": 5559,
      "Ġpupp": 5560,
      "Ġwinning": 5561,
      "Ġloaded": 5562,
      "Ġmater": 5563,
      "Ġmittens": 5564,
      "ĠBig": 5565,
      "ĠPip": 5566,
      "Ġmateri": 5567,
      "ashed": 5568,
      "Ġvent": 5569,
      "Ġbudge": 5570,
      "ÅĵCan": 5571,
      "Ġwrites": 5572,
      "Ġbreaking": 5573,
      "ĠOl": 5574,
      "Ġsights": 5575,
      "Ġbloomed": 5576,
      "Ġincrease": 5577,
      "Ġmentioned": 5578,
      "Ġlandscape": 5579,
      "edding": 5580,
      "Ġpearl": 5581,
      "thank": 5582,
      "Ġsteel": 5583,
      "Ġtastes": 5584,
      "Ġmuscles": 5585,
      "Ġdoctors": 5586,
      "ĠFrank": 5587,
      "Ġproperly": 5588,
      "Or": 5589,
      "Ġago": 5590,
      "ĠLucky": 5591,
      "bert": 5592,
      "ulu": 5593,
      "George": 5594,
      "Rex": 5595,
      "Joey": 5596,
      "Ġcontro": 5597,
      "Ġbottles": 5598,
      "Ġstirring": 5599,
      "Ġstamps": 5600,
      "Ġscurried": 5601,
      "zing": 5602,
      "ĠThese": 5603,
      "Ġbend": 5604,
      "Ġkeeps": 5605,
      "ĠAnne": 5606,
      "Ġpowers": 5607,
      "Happy": 5608,
      "Ġwonders": 5609,
      "Paul": 5610,
      "mare": 5611,
      "Ġdent": 5612,
      "Ġstair": 5613,
      "Ġpears": 5614,
      "Ġopin": 5615,
      "Ġjogged": 5616,
      "aster": 5617,
      "Ġshoulders": 5618,
      "Ġfiremen": 5619,
      "Ġprinted": 5620,
      "Ġpunished": 5621,
      "Ġoutdoors": 5622,
      "Ġinstructions": 5623,
      "ury": 5624,
      "Ġchef": 5625,
      "Ġwondering": 5626,
      "uesday": 5627,
      "ux": 5628,
      "ĠSomething": 5629,
      "Ġstole": 5630,
      "Ġwinner": 5631,
      "Bobby": 5632,
      "Mar": 5633,
      "die": 5634,
      "shing": 5635,
      "Ġpies": 5636,
      "ĠTw": 5637,
      "imy": 5638,
      "Ġcrumb": 5639,
      "Ġzigzag": 5640,
      "Ġruin": 5641,
      "iggy": 5642,
      "Ġgiggling": 5643,
      "Ġgathering": 5644,
      "Ġpouring": 5645,
      "Ġfigured": 5646,
      "bric": 5647,
      "nes": 5648,
      "oed": 5649,
      "Ġlux": 5650,
      "ishes": 5651,
      "Ġfabric": 5652,
      "Ġnightmare": 5653,
      "Ġburrow": 5654,
      "Ġincluded": 5655,
      "rr": 5656,
      "Ġtwinkling": 5657,
      "ednes": 5658,
      "ĠSanta": 5659,
      "Ġcones": 5660,
      "ĠKe": 5661,
      "Ġplanets": 5662,
      "Ġapplauded": 5663,
      "ednesday": 5664,
      "Ġwagging": 5665,
      "ĠTuesday": 5666,
      "Ġeast": 5667,
      "Ġyouth": 5668,
      "usan": 5669,
      "Ġseason": 5670,
      "Teddy": 5671,
      "zen": 5672,
      "ĠQu": 5673,
      "Ġwest": 5674,
      "Ġtonight": 5675,
      "Ġdam": 5676,
      "Ġlied": 5677,
      "Ġstrings": 5678,
      "though": 5679,
      "Ġbuckets": 5680,
      "Ġkeys": 5681,
      "Ġentire": 5682,
      "Ġsupplies": 5683,
      "Ġshivered": 5684,
      "Ġurged": 5685,
      "uly": 5686,
      "Ġwedding": 5687,
      "Ġgrant": 5688,
      "ĠCar": 5689,
      "Afterwards": 5690,
      "Ġhonk": 5691,
      "Ġsilence": 5692,
      "Ġemergency": 5693,
      "Ġinch": 5694,
      "Ġbeard": 5695,
      "Ġweb": 5696,
      "ĠBir": 5697,
      "Ġtexture": 5698,
      "ĠCarl": 5699,
      "ledge": 5700,
      "Ġforgi": 5701,
      "Ġguest": 5702,
      "uctantly": 5703,
      "Ġpurred": 5704,
      "Ġroaring": 5705,
      "ĠWednesday": 5706,
      "ĠDid": 5707,
      "Ġpebbles": 5708,
      "Ġteasing": 5709,
      "ÅĵThis": 5710,
      "Ġmarriage": 5711,
      "Ġrainbows": 5712,
      "Ġintroduce": 5713,
      "bies": 5714,
      "Ġknowledge": 5715,
      "avi": 5716,
      "lowly": 5717,
      "Ġconfident": 5718,
      "Ġintroduced": 5719,
      "Bella": 5720,
      "Pete": 5721,
      "uzz": 5722,
      "Ġsi": 5723,
      "omas": 5724,
      "Ġsoaked": 5725,
      "Ġbabies": 5726,
      "Ġtouching": 5727,
      "Ġsnowball": 5728,
      "Ġsurface": 5729,
      "Ġresponsible": 5730,
      "Ġsorting": 5731,
      "Ġeats": 5732,
      "Ġrocking": 5733,
      "Ġfrosting": 5734,
      "Ġacted": 5735,
      "Ġbrushes": 5736,
      ".'": 5737,
      "ora": 5738,
      "Ġsneaked": 5739,
      "Ġreleased": 5740,
      "Remember": 5741,
      "lee": 5742,
      "Ġclick": 5743,
      "Ġourselves": 5744,
      "Ġsteep": 5745,
      "Ġfrozen": 5746,
      "ĠChloe": 5747,
      "Ġclaps": 5748,
      "Ġcontrol": 5749,
      "hins": 5750,
      "aky": 5751,
      "ĠJosh": 5752,
      "ĠletÃ¢": 5753,
      "Ġcontest": 5754,
      "izzie": 5755,
      "exp": 5756,
      "Ġtickle": 5757,
      "Ġmovies": 5758,
      "Ġrubbing": 5759,
      "Cl": 5760,
      "Ġsides": 5761,
      "Ġeight": 5762,
      "Ġpeaches": 5763,
      "Ġpockets": 5764,
      "Ġfart": 5765,
      "Ġann": 5766,
      "Ġdragged": 5767,
      "Ġstorekeeper": 5768,
      "Ġreluctantly": 5769,
      "Ġmatching": 5770,
      "Ġsisters": 5771,
      "Ġexpected": 5772,
      "Ġpoliceman": 5773,
      "Ġhorns": 5774,
      "Ella": 5775,
      "Ġbunch": 5776,
      "Ġcape": 5777,
      "ĠSunny": 5778,
      "Ġshock": 5779,
      "inda": 5780,
      "ĠJan": 5781,
      "bbing": 5782,
      "Ġgreet": 5783,
      "Ġpaintings": 5784,
      "Ġdragons": 5785,
      "Ġscreaming": 5786,
      "Ġmixing": 5787,
      "Ġspraying": 5788,
      "Ġcompetition": 5789,
      "Ġdemanded": 5790,
      "ody": 5791,
      "va": 5792,
      "ira": 5793,
      "Ġplenty": 5794,
      "Ġbecoming": 5795,
      "Ġsorted": 5796,
      "ĠRa": 5797,
      "Ġsinger": 5798,
      "Ġproject": 5799,
      "Ġinterest": 5800,
      "ĠStop": 5801,
      "Ġshivering": 5802,
      "expected": 5803,
      "ĠHop": 5804,
      "ason": 5805,
      "Ġbravery": 5806,
      "Ġunexpected": 5807,
      "Ġdeser": 5808,
      "Ġresult": 5809,
      "Ġsituation": 5810,
      "Lola": 5811,
      "Ġruler": 5812,
      "Ġmachines": 5813,
      "Ġcrowd": 5814,
      "Ġsolution": 5815,
      "Mr": 5816,
      "ĠLike": 5817,
      "Ġowners": 5818,
      "ĠJohnson": 5819,
      "Ġdolphins": 5820,
      "Ġpoking": 5821,
      "Ġtruly": 5822,
      "Ġdraws": 5823,
      "Ġzookeeper": 5824,
      "Goodbye": 5825,
      "ĠSure": 5826,
      "Ġchat": 5827,
      "Ġwritten": 5828,
      "Ġprints": 5829,
      "Ġmatched": 5830,
      "Ġshelves": 5831,
      "Ġdiscovering": 5832,
      "Ġcountryside": 5833,
      "ÅĵDonÃ¢": 5834,
      "Ġsuitcase": 5835,
      "Ġluxury": 5836,
      "vin": 5837,
      "Ġsway": 5838,
      "reen": 5839,
      "Ġrelease": 5840,
      "usted": 5841,
      "ĠAlways": 5842,
      "Ġda": 5843,
      "ayla": 5844,
      "Ġgoals": 5845,
      "Ġgoodnight": 5846,
      "Ġexpect": 5847,
      "Ġpassing": 5848,
      "Ġchewing": 5849,
      "Ġcrackers": 5850,
      "Ġblooming": 5851,
      "Ġbalancing": 5852,
      "Ġachieve": 5853,
      "Ġcautious": 5854,
      "Ġvictory": 5855,
      "James": 5856,
      "fit": 5857,
      "iar": 5858,
      "you": 5859,
      "ern": 5860,
      "Ġpout": 5861,
      "irm": 5862,
      "Ġhugging": 5863,
      "Ġslimy": 5864,
      "Ġwaiter": 5865,
      "Ġcurtains": 5866,
      "Ye": 5867,
      "Ġfetch": 5868,
      "vers": 5869,
      "Ġblink": 5870,
      "ults": 5871,
      "Ġhighest": 5872,
      "Ġcheering": 5873,
      "ĠBuzzy": 5874,
      "Ġmuffins": 5875,
      "lowers": 5876,
      "Ġdirection": 5877,
      "Ġguys": 5878,
      "Ġtrembling": 5879,
      "Ġdentist": 5880,
      "jam": 5881,
      "rance": 5882,
      "hell": 5883,
      "ĠAdam": 5884,
      "ĠJamie": 5885,
      "Ġranger": 5886,
      "ĠLulu": 5887,
      "Ġkicking": 5888,
      "Ġmotion": 5889,
      "Ġrecorded": 5890,
      "Ġcamping": 5891,
      "Ġstruggle": 5892,
      "Ġsiren": 5893,
      "icky": 5894,
      "Ġsweets": 5895,
      "Ġcreating": 5896,
      "Ġhealed": 5897,
      "Ġdusty": 5898,
      "int": 5899,
      "iles": 5900,
      "Ġoutfit": 5901,
      "Ġhomework": 5902,
      "ÅĵHello": 5903,
      "Ġpolishing": 5904,
      "Ġpastries": 5905,
      "Ġrelief": 5906,
      "Ġdesp": 5907,
      "Ġroads": 5908,
      "ĠMatt": 5909,
      "ĠJeff": 5910,
      "Kitty": 5911,
      "appy": 5912,
      "cers": 5913,
      "udy": 5914,
      "itely": 5915,
      "ĠcanÃ¢": 5916,
      "oline": 5917,
      "Ġmarker": 5918,
      "Ġlibrarian": 5919,
      "ĠUnfortunately": 5920,
      "Ġcent": 5921,
      "Ġstaring": 5922,
      "ĠDavid": 5923,
      "Ġprayer": 5924,
      "Ġstudying": 5925,
      "Ġsausages": 5926,
      "Ġladybug": 5927,
      "Ġventured": 5928,
      "Mike": 5929,
      "Ġspike": 5930,
      "Ġexha": 5931,
      "Ġchips": 5932,
      "Ġbroom": 5933,
      "Ġpastels": 5934,
      "Grace": 5935,
      "Ġcurly": 5936,
      "Ġcompletely": 5937,
      "Ġdisagree": 5938,
      "ivery": 5939,
      "Ġti": 5940,
      "Ġstare": 5941,
      "agull": 5942,
      "Ġchases": 5943,
      "ÅĵOh": 5944,
      "Ġimportance": 5945,
      "Ġbaked": 5946,
      "...": 5947,
      "Yeah": 5948,
      "Maggie": 5949,
      "Ġtim": 5950,
      "Ġwound": 5951,
      "ĠFor": 5952,
      "ĠRob": 5953,
      "Ġdrives": 5954,
      "Millie": 5955,
      "Ġ1": 5956,
      "Ġworries": 5957,
      "asm": 5958,
      "essie": 5959,
      "ĠCindy": 5960,
      "Ġsweeties": 5961,
      "Ġarrive": 5962,
      "Ġdesert": 5963,
      "Ġscru": 5964,
      "However": 5965,
      "Ġpenguins": 5966,
      "Ġkneeled": 5967,
      "Ġfirm": 5968,
      "immer": 5969,
      "ĠBy": 5970,
      "Ġseagull": 5971,
      "ĠJones": 5972,
      "Ġscra": 5973,
      "Ġscales": 5974,
      "Ġprun": 5975,
      "Ġpartic": 5976,
      "Ġthreat": 5977,
      "ĠTilly": 5978,
      "Ġthro": 5979,
      "Ġshined": 5980,
      "Ġsnugg": 5981,
      "Ġnetwork": 5982,
      "Ġrescued": 5983,
      "Ġrepeated": 5984,
      "Ġgazed": 5985,
      "Ġactivities": 5986,
      "Ġexhausted": 5987,
      "Ah": 5988,
      "Alex": 5989,
      "Fr": 5990,
      "Ġfreed": 5991,
      "iding": 5992,
      "esome": 5993,
      "opes": 5994,
      "Ġcaused": 5995,
      "Ġentrance": 5996,
      "Ġarguing": 5997,
      "Ġthroat": 5998,
      "Ġcash": 5999,
      "Ġheel": 6000,
      "irts": 6001,
      "Ġtheirs": 6002,
      "Ġslap": 6003,
      "Ġfoc": 6004,
      "Ġunited": 6005,
      "Ġpatted": 6006,
      "Ġtrips": 6007,
      "Ġsnakes": 6008,
      "Ġwandering": 6009,
      "Ġleader": 6010,
      "Ġinclude": 6011,
      "Mittens": 6012,
      "Ġast": 6013,
      "ĠSadly": 6014,
      "ĠSusan": 6015,
      "igi": 6016,
      "Ġtowels": 6017,
      "Ġsticking": 6018,
      "ĠwasnÃ¢": 6019,
      "Ġpeeking": 6020,
      "Ġribbons": 6021,
      "Ġregretted": 6022,
      "Ġfarther": 6023,
      "jamas": 6024,
      "go": 6025,
      "Ġwink": 6026,
      "Ġfara": 6027,
      "Ġlamb": 6028,
      "Ġheav": 6029,
      "Ġboom": 6030,
      "ĠLou": 6031,
      "Ġcomm": 6032,
      "Ġdelivery": 6033,
      "Ġseesaw": 6034,
      "Ġpatience": 6035,
      "Ġobserved": 6036,
      "Ġquacked": 6037,
      "Ġparticular": 6038,
      "Ġfaraway": 6039,
      "ik": 6040,
      "hello": 6041,
      "Ġbead": 6042,
      "alph": 6043,
      "Ġrolls": 6044,
      "Ġreaching": 6045,
      "Grandpa": 6046,
      "Ġseems": 6047,
      "Mrs": 6048,
      "Ġstartled": 6049,
      "Ġlearns": 6050,
      "Ġcatches": 6051,
      "Ġusual": 6052,
      "Ġsingle": 6053,
      "Ġpolished": 6054,
      "Ġawesome": 6055,
      "ĠJon": 6056,
      "Ġfault": 6057,
      "Ġhowever": 6058,
      "ÅĵWhy": 6059,
      "ĠGr": 6060,
      "Sophie": 6061,
      "ne": 6062,
      "ĠyouÃ¢": 6063,
      "acob": 6064,
      "Ġsafer": 6065,
      "Ġorganizing": 6066,
      "Ġcrabs": 6067,
      "ĠZoom": 6068,
      "Ġreveal": 6069,
      "Ġsquealed": 6070,
      "Ġfirefighters": 6071,
      "Ġcrumbs": 6072,
      "Bun": 6073,
      "Harry": 6074,
      "Ġdared": 6075,
      "Ġflat": 6076,
      "Ġremoved": 6077,
      "Ġmarks": 6078,
      "ĠOut": 6079,
      "Ġtraveled": 6080,
      "ĠChrist": 6081,
      "dies": 6082,
      "Ġliqu": 6083,
      "Ġleap": 6084,
      "ĠMomo": 6085,
      "ÅĵMommy": 6086,
      "Ġrestored": 6087,
      "Ġdarkness": 6088,
      "Ġinviting": 6089,
      "Ġvanish": 6090,
      "Ġsandcastles": 6091,
      "ĠSuzie": 6092,
      "Ġherbs": 6093,
      "Ġdirect": 6094,
      "Ġopinion": 6095,
      "Ġliquid": 6096,
      "Ġboo": 6097,
      "ĠSlowly": 6098,
      "Ġstolen": 6099,
      "Ġstrike": 6100,
      "cuse": 6101,
      "Henry": 6102,
      "mas": 6103,
      "njoy": 6104,
      "ĠBye": 6105,
      "umm": 6106,
      "aced": 6107,
      "Ġpajamas": 6108,
      "Ġcuts": 6109,
      "Ġvalued": 6110,
      "Ġcoloured": 6111,
      "Ġtickled": 6112,
      "Ġwiggled": 6113,
      "ĠClaire": 6114,
      "Fred": 6115,
      "pe": 6116,
      "ords": 6117,
      "ĠMart": 6118,
      "Ġroots": 6119,
      "ĠLizzy": 6120,
      "Ġstroll": 6121,
      "Ġgaze": 6122,
      "Leo": 6123,
      "Ġpaddled": 6124,
      "ences": 6125,
      "ĠLuke": 6126,
      "Ġchuck": 6127,
      "Ġresting": 6128,
      "Ġgrowl": 6129,
      "Ġadding": 6130,
      "Annie": 6131,
      "ĠFollow": 6132,
      "Excuse": 6133,
      "Ġinterested": 6134,
      "ĠChristmas": 6135,
      "ĠYes": 6136,
      "Ġcause": 6137,
      "ently": 6138,
      "Ġfaced": 6139,
      "ĠEarth": 6140,
      "Ġswooped": 6141,
      "Ġeverybody": 6142,
      "Ġworker": 6143,
      "Ġusually": 6144,
      "Ġgrowling": 6145,
      "Ġpencils": 6146,
      "Ġsighs": 6147,
      "Ġprunes": 6148,
      "Ġbumpy": 6149,
      "Ġlined": 6150,
      "Ġnect": 6151,
      "Ġsomebody": 6152,
      "Ġlap": 6153,
      "Ġforehead": 6154,
      "coat": 6155,
      "Ġtallest": 6156,
      "Ġbuying": 6157,
      "Ġknights": 6158,
      "Ġitchy": 6159,
      "Ġnectar": 6160,
      "elia": 6161,
      "Ġopening": 6162,
      "boat": 6163,
      "angled": 6164,
      "Ġpots": 6165,
      "Ġfuzzy": 6166,
      "Ġgroceries": 6167,
      "Rose": 6168,
      "ĠĠĊ": 6169,
      "Ġstem": 6170,
      "Ġcans": 6171,
      "ĠJenna": 6172,
      "Ġweeping": 6173,
      "Ġbeads": 6174,
      "lings": 6175,
      "rious": 6176,
      "Ġflames": 6177,
      "Ġprincesses": 6178,
      "Ġmisses": 6179,
      "ĠBeing": 6180,
      "Ġflags": 6181,
      "Ġcracked": 6182,
      "Ġwires": 6183,
      "Ġsneaky": 6184,
      "Ġfamilies": 6185,
      "rops": 6186,
      "ĠMany": 6187,
      "aren": 6188,
      "ĠLarry": 6189,
      "Ġraind": 6190,
      "Ġraincoat": 6191,
      "Ġcovers": 6192,
      "Ġawake": 6193,
      "oh": 6194,
      "Ġty": 6195,
      "Ġcott": 6196,
      "Ġden": 6197,
      "Ġrisk": 6198,
      "Ġrumble": 6199,
      "ĠEls": 6200,
      "Ġpretends": 6201,
      "Ġyesterday": 6202,
      "Ġcelebration": 6203,
      "Ġimproved": 6204,
      "Uh": 6205,
      "Ġpause": 6206,
      "armer": 6207,
      "ana": 6208,
      "Ġripe": 6209,
      "ĠBoth": 6210,
      "Ġmane": 6211,
      "ĠLinda": 6212,
      "ĠThomas": 6213,
      "Ġteaches": 6214,
      "abel": 6215,
      "Ġbaker": 6216,
      "Unfortunately": 6217,
      "Sandy": 6218,
      "Ġdipped": 6219,
      "Ġopp": 6220,
      "Ġglee": 6221,
      "Ġstern": 6222,
      "ĠMilo": 6223,
      "oys": 6224,
      "Ġwrist": 6225,
      "Ġpacking": 6226,
      "hog": 6227,
      "Ġmiles": 6228,
      "Ġleading": 6229,
      "Ġmelting": 6230,
      "Ġmagnets": 6231,
      "ÅĵWhatÃ¢": 6232,
      "Ġtasks": 6233,
      "Ġprovided": 6234,
      "Ġtwinkle": 6235,
      "Ġbalanced": 6236,
      "Ġcashier": 6237,
      "Ġhi": 6238,
      "reat": 6239,
      "Ġbelly": 6240,
      "opsy": 6241,
      "bbly": 6242,
      "Ġsnuck": 6243,
      "brush": 6244,
      "Ġphotos": 6245,
      "Ġunpacked": 6246,
      "Ġaff": 6247,
      "Ġwasted": 6248,
      "ppers": 6249,
      "ĠLuckily": 6250,
      "Ġsnat": 6251,
      "Ġunf": 6252,
      "Ġreplaced": 6253,
      "Ġworkers": 6254,
      "Ġdef": 6255,
      "Ġreads": 6256,
      "ĠEmmy": 6257,
      "Ġnaps": 6258,
      "Ġrockets": 6259,
      "Ġraindrops": 6260,
      "Ġlung": 6261,
      "ena": 6262,
      "ĠBird": 6263,
      "ĠLizzie": 6264,
      "Ġstaying": 6265,
      "Ġsmiley": 6266,
      "Ġuses": 6267,
      "Ġwinked": 6268,
      "Ġprotecting": 6269,
      "Ġreply": 6270,
      "ĠJessie": 6271,
      "ĠRabbit": 6272,
      "ĠY": 6273,
      "hee": 6274,
      "Ġwow": 6275,
      "Ġpiggy": 6276,
      "arling": 6277,
      "Ġmarked": 6278,
      "Ġactions": 6279,
      "Ġdetermination": 6280,
      "Ġbeginning": 6281,
      "Ġaccomplish": 6282,
      "Ġcautiously": 6283,
      "Ġbars": 6284,
      "Ġswirl": 6285,
      "Ġcolored": 6286,
      "Ġbedtime": 6287,
      "Ġradishes": 6288,
      "Charlie": 6289,
      "Ġagrees": 6290,
      "ĠBetty": 6291,
      "Ġrecommended": 6292,
      "eke": 6293,
      "Ġlower": 6294,
      "Ġhissed": 6295,
      "ĠPipp": 6296,
      "Ġfilling": 6297,
      "Ġsecure": 6298,
      "Ġtalented": 6299,
      "boo": 6300,
      "ĠHannah": 6301,
      "ĠMad": 6302,
      "ĠAunt": 6303,
      "Ġtwin": 6304,
      "ĠPut": 6305,
      "Ġexplorers": 6306,
      "Ġspeaking": 6307,
      "Ġpaddle": 6308,
      "Ġtemper": 6309,
      "ĠJessica": 6310,
      "wk": 6311,
      "Ġtodd": 6312,
      "Ġcough": 6313,
      "Ġseven": 6314,
      "Ġtreehouse": 6315,
      "Ġtricked": 6316,
      "Ġsplashes": 6317,
      "Ġglasses": 6318,
      "Ġrecording": 6319,
      "Ġdirections": 6320,
      "ossible": 6321,
      "vest": 6322,
      "ĠMon": 6323,
      "Ġchoo": 6324,
      "Ġimpossible": 6325,
      "Ġparties": 6326,
      "Ġdarker": 6327,
      "Ġattack": 6328,
      "Ġcelebrating": 6329,
      "ĠLeave": 6330,
      "Ġgiraff": 6331,
      "Ġhedgehog": 6332,
      "Ġseashell": 6333,
      "Ġcalmed": 6334,
      "Ġdrifted": 6335,
      "Ġtimer": 6336,
      "Ġchuckled": 6337,
      "Kate": 6338,
      "Ëľ": 6339,
      "ĠTess": 6340,
      "ido": 6341,
      "Ġhawk": 6342,
      "ĠSqu": 6343,
      "ormed": 6344,
      "?\",": 6345,
      "ĠWater": 6346,
      "âĤ¬Ëľ": 6347,
      "Ġdancers": 6348,
      "ĠPrin": 6349,
      "ĠGigi": 6350,
      "Ġsailboat": 6351,
      "Ġgems": 6352,
      "Ġflavor": 6353,
      "Ġgiraffes": 6354,
      "Days": 6355,
      "ĠJay": 6356,
      "Ġfever": 6357,
      "Ġdiving": 6358,
      "Ġhallway": 6359,
      "ĠSparky": 6360,
      "cited": 6361,
      "Ġlogs": 6362,
      "Ġbacked": 6363,
      "Ġdeal": 6364,
      "Ġsteer": 6365,
      "Ġpleasure": 6366,
      "ophia": 6367,
      "Ġscrubbed": 6368,
      "Polly": 6369,
      "yond": 6370,
      "isies": 6371,
      "ids": 6372,
      "Ġinsp": 6373,
      "Ġbeyond": 6374,
      "rip": 6375,
      "Ġyounger": 6376,
      "ĠBo": 6377,
      "urry": 6378,
      "Ġrobb": 6379,
      "Ġconn": 6380,
      "Ġfairies": 6381,
      "ĠwouldnÃ¢": 6382,
      "ĠOw": 6383,
      "Ġfolding": 6384,
      "Ġpaying": 6385,
      "Ġtricky": 6386,
      "Ġartist": 6387,
      "Ġbakery": 6388,
      "Ġmaterials": 6389,
      "Ġpouted": 6390,
      "no": 6391,
      "Ġsense": 6392,
      "ĠHappy": 6393,
      "ĠMel": 6394,
      "ĠAbbie": 6395,
      "Ġchip": 6396,
      "Ġslices": 6397,
      "ths": 6398,
      "ĠRobby": 6399,
      "Ġrivers": 6400,
      "Ġbowls": 6401,
      "Ġhoriz": 6402,
      "Ġbumps": 6403,
      "Ġlollipops": 6404,
      "Ġobjects": 6405,
      "Ġcheeks": 6406,
      "Ġdaisies": 6407,
      "Ġtipt": 6408,
      "Ġtemperature": 6409,
      "bell": 6410,
      "Ġlun": 6411,
      "aty": 6412,
      "Ġknees": 6413,
      "Ġsquish": 6414,
      "Ġrubs": 6415,
      "Ġsquares": 6416,
      "Ġsnatched": 6417,
      "Ġhorizon": 6418,
      "ners": 6419,
      "arter": 6420,
      "ĠMo": 6421,
      "Ġsmarter": 6422,
      "Ġyourselves": 6423,
      "Ġcoloring": 6424,
      "Ġlistens": 6425,
      "itches": 6426,
      "Ġfroze": 6427,
      "Ġcreamy": 6428,
      "ĠJulia": 6429,
      "Ġfluttered": 6430,
      "Ġachieved": 6431,
      "ĠMaya": 6432,
      "Ġrusty": 6433,
      "Bl": 6434,
      "Fine": 6435,
      "Some": 6436,
      "ippy": 6437,
      "oey": 6438,
      "the": 6439,
      "tle": 6440,
      "Ġscaring": 6441,
      "Ġtractor": 6442,
      "Ġbehavi": 6443,
      "Ġdreamt": 6444,
      "Ġmuscle": 6445,
      "cope": 6446,
      "uzzy": 6447,
      "Ġsib": 6448,
      "Ġdarling": 6449,
      "Ġmi": 6450,
      "Ġsobbed": 6451,
      "Ġchop": 6452,
      "ĠFriend": 6453,
      "Ġcupcakes": 6454,
      "Ġembarrass": 6455,
      "Ġrefle": 6456,
      "Ġpedals": 6457,
      "Ġdiscussed": 6458,
      "Ġinstrum": 6459,
      "zes": 6460,
      "Ġhearing": 6461,
      "Ġlosing": 6462,
      "ĠEnjoy": 6463,
      "Ġgrassy": 6464,
      "Ġhealth": 6465,
      "Ġscarves": 6466,
      "Ġblows": 6467,
      "Ġcandies": 6468,
      "Ġarrows": 6469,
      "Ġdelivered": 6470,
      "Ġmasks": 6471,
      "ĠKeep": 6472,
      "ĠPrincess": 6473,
      "For": 6474,
      "Katie": 6475,
      "oni": 6476,
      "Ġweeke": 6477,
      "Ġaren": 6478,
      "Ġjoking": 6479,
      "ĠChe": 6480,
      "Ġfluttering": 6481,
      "Ġmixture": 6482,
      "Ġweekend": 6483,
      "fl": 6484,
      "urious": 6485,
      "Ġhitting": 6486,
      "Ġwadd": 6487,
      "Ġmes": 6488,
      "ility": 6489,
      "ĠSorry": 6490,
      "Ġrip": 6491,
      "ĠAbby": 6492,
      "ĠDolly": 6493,
      "Ġstays": 6494,
      "ĠPo": 6495,
      "Ġcloses": 6496,
      "Ġafterwards": 6497,
      "ĠAsh": 6498,
      "ĠTodd": 6499,
      "Ġindeed": 6500,
      "Ġrewarded": 6501,
      "Ġseparated": 6502,
      "Ġwidened": 6503,
      "Ġtravelled": 6504,
      "Ġmesmer": 6505,
      "Fin": 6506,
      "Ġdots": 6507,
      "Ġthird": 6508,
      "Ġnoon": 6509,
      "icked": 6510,
      "Ġmeals": 6511,
      "Ġhandful": 6512,
      "ĠPl": 6513,
      "ĠGet": 6514,
      "Ġsigned": 6515,
      "Ġwipes": 6516,
      "Ġhesitated": 6517,
      "ĠNothing": 6518,
      "Ġbehaved": 6519,
      "itched": 6520,
      "Ġcous": 6521,
      "iled": 6522,
      "Ġgobbled": 6523,
      "Ġroses": 6524,
      "ĠFarmer": 6525,
      "ÅĵDo": 6526,
      "ĠNick": 6527,
      "Ġpotion": 6528,
      "Ġneighbours": 6529,
      "Ġcowb": 6530,
      "Ġsalty": 6531,
      "Ġscrews": 6532,
      "Ġminerals": 6533,
      "May": 6534,
      "band": 6535,
      "rig": 6536,
      "eds": 6537,
      "ĠHoot": 6538,
      "igers": 6539,
      "ntil": 6540,
      "Ġwears": 6541,
      "Ġrefu": 6542,
      "Ġflapping": 6543,
      "using": 6544,
      "ĠEverybody": 6545,
      "aker": 6546,
      "Ġyells": 6547,
      "ments": 6548,
      "Ġkicks": 6549,
      "Ġshrinking": 6550,
      "Toby": 6551,
      "Ġvideos": 6552,
      "Ġforgiven": 6553,
      "Danny": 6554,
      "Time": 6555,
      "Ġaud": 6556,
      "ĠTara": 6557,
      "Ġonions": 6558,
      "Ġshirts": 6559,
      "ĠJazz": 6560,
      "Ġexperien": 6561,
      "Ġburst": 6562,
      "Ġornaments": 6563,
      "An": 6564,
      "Ġrising": 6565,
      "Ġbeam": 6566,
      "itted": 6567,
      "sequ": 6568,
      "ickey": 6569,
      "iece": 6570,
      "Ġslam": 6571,
      "Ġdrawn": 6572,
      "Ġamong": 6573,
      "Ġlighter": 6574,
      "Ġrequested": 6575,
      "ĠAmelia": 6576,
      "?'": 6577,
      "Ellie": 6578,
      "Milly": 6579,
      "Ġtangled": 6580,
      "Ġcoup": 6581,
      "ades": 6582,
      "Ġfact": 6583,
      "ept": 6584,
      "Ġbadge": 6585,
      "Ġconsequ": 6586,
      "Ġbeloved": 6587,
      "ĠKayla": 6588,
      "Ġknocks": 6589,
      "ded": 6590,
      "Ġcust": 6591,
      "Ġech": 6592,
      "ĠEl": 6593,
      "Ġswept": 6594,
      "Ġneedles": 6595,
      "ÅĵWow": 6596,
      "ĠPam": 6597,
      "umbling": 6598,
      "Bobo": 6599,
      "Ġclowns": 6600,
      "Ġgracefully": 6601,
      "Ġsnowballs": 6602,
      "eal": 6603,
      "jo": 6604,
      "ouch": 6605,
      "Ġkites": 6606,
      "ĠJacob": 6607,
      "Ġnoses": 6608,
      "Ġgrandp": 6609,
      "Ġwilling": 6610,
      "ĠJacky": 6611,
      "Ġblocking": 6612,
      "Ġprinting": 6613,
      "ĠDoggy": 6614,
      "Ġpointy": 6615,
      "Ġpassen": 6616,
      "Ġtunnels": 6617,
      "Ġcopy": 6618,
      "Ġcomplaining": 6619,
      "Ġcouple": 6620,
      "Ġcustom": 6621,
      "Ducky": 6622,
      "Run": 6623,
      "Ġdet": 6624,
      "atul": 6625,
      "igning": 6626,
      "ĠWatch": 6627,
      "ĠLi": 6628,
      "ĠPinky": 6629,
      "Ġperformance": 6630,
      "ronaut": 6631,
      "Ġstomped": 6632,
      "Ġincluding": 6633,
      "Ġastronaut": 6634,
      "iki": 6635,
      "Ġsiblings": 6636,
      "Ġconsequences": 6637,
      "Ġteased": 6638,
      "Ġpans": 6639,
      "Ġjackets": 6640,
      "Ġannoy": 6641,
      "Ġcenter": 6642,
      "Ġafford": 6643,
      "Ġgrandpare": 6644,
      "Ġcor": 6645,
      "ans": 6646,
      "llen": 6647,
      "Ġarr": 6648,
      "Ġhandsome": 6649,
      "Ġchoices": 6650,
      "Ġforgetting": 6651,
      "Ġdrums": 6652,
      "Ġtiptoed": 6653,
      "Ġaudience": 6654,
      "Dan": 6655,
      "Wh": 6656,
      "aa": 6657,
      "ky": 6658,
      "atur": 6659,
      "obody": 6660,
      "ĠPandy": 6661,
      "ĠwonÃ¢": 6662,
      "Ġplans": 6663,
      "ĠFlopsy": 6664,
      "Ġsource": 6665,
      "Ġscratches": 6666,
      "Ġsurroundings": 6667,
      "Ġstroked": 6668,
      "rigued": 6669,
      "Ew": 6670,
      "Tina": 6671,
      "aired": 6672,
      "tuce": 6673,
      "Ġhus": 6674,
      "Ġhour": 6675,
      "Ġmast": 6676,
      "ados": 6677,
      "Ġcond": 6678,
      "ĠFido": 6679,
      "Ġpeppers": 6680,
      "Those": 6681,
      "Ġlettuce": 6682,
      "Ġcreations": 6683,
      "Ġrule": 6684,
      "Ġpeacefully": 6685,
      "Ġspoonful": 6686,
      "Ġwrapping": 6687,
      "Ġrepaired": 6688,
      "Ġwraps": 6689,
      "Ġavocados": 6690,
      "Ġpoems": 6691,
      "Ġgranted": 6692,
      "immering": 6693,
      "come": 6694,
      "mallow": 6695,
      "Ġtigers": 6696,
      "Ġlimes": 6697,
      "Ġropes": 6698,
      "Ġplayers": 6699,
      "Ġhelpers": 6700,
      "retty": 6701,
      "iley": 6702,
      "Ġbully": 6703,
      "Ġadult": 6704,
      "Ġwindy": 6705,
      "Ġzipping": 6706,
      "Ġbows": 6707,
      "Ġsnowmen": 6708,
      "Ġstarfish": 6709,
      "ĠOwl": 6710,
      "ivity": 6711,
      "Ġforks": 6712,
      "Ġavoid": 6713,
      "Ġhelmets": 6714,
      "arshmallow": 6715,
      "Ġtempt": 6716,
      "ĠRover": 6717,
      "Ġsports": 6718,
      "Ġwarnings": 6719,
      "Ġswimsuit": 6720,
      "Ġlungs": 6721,
      "Ġreass": 6722,
      "ĠMa": 6723,
      "Ġtramp": 6724,
      "ÅĵCome": 6725,
      "Ġremote": 6726,
      "Ġconcer": 6727,
      "Ġuns": 6728,
      "Ġheading": 6729,
      "Ġplanning": 6730,
      "Ġwishing": 6731,
      "Ġleaning": 6732,
      "Ġseconds": 6733,
      "Ġsprinkled": 6734,
      "Shh": 6735,
      "Ġtoddler": 6736,
      "By": 6737,
      "Ġrings": 6738,
      "ĠBessie": 6739,
      "ĠJune": 6740,
      "Ġfears": 6741,
      "Ġhider": 6742,
      "Ġsilent": 6743,
      "Ġcomplained": 6744,
      "ĠFox": 6745,
      "Ġhesitant": 6746,
      "ĠGoodbye": 6747,
      "ccoon": 6748,
      "Ġgreeted": 6749,
      "Ġdeserve": 6750,
      "Ġheavier": 6751,
      "Bad": 6752,
      "arrow": 6753,
      "river": 6754,
      "step": 6755,
      "Ġflas": 6756,
      "Ġgrabbing": 6757,
      "Ġtwice": 6758,
      "Ġraccoon": 6759,
      "Ġwarri": 6760,
      "ĠRemember": 6761,
      "Ġcreativity": 6762,
      "ĠWithout": 6763,
      "Ġspreading": 6764,
      "Ġborrowed": 6765,
      "Ġpumpkins": 6766,
      "Ġdesigned": 6767,
      "ĠOlive": 6768,
      "Maria": 6769,
      "ĠQuack": 6770,
      "Ġhusband": 6771,
      "Ġtrampoline": 6772,
      "Pat": 6773,
      "cl": 6774,
      "fall": 6775,
      "Ġmerry": 6776,
      "ĠSun": 6777,
      "esp": 6778,
      "Ġrus": 6779,
      "Ġskunk": 6780,
      "ÅĵHi": 6781,
      "ĠZoey": 6782,
      "Ġcuddly": 6783,
      "Ġinsects": 6784,
      "Ġfirefighter": 6785,
      "ĠTwo": 6786,
      "Great": 6787,
      "yes": 6788,
      "ĠQ": 6789,
      "Ġwins": 6790,
      "Ġbodies": 6791,
      "Ġspong": 6792,
      "Ġnapkins": 6793,
      "Ġimagining": 6794,
      "ĠZip": 6795,
      "Ġseeker": 6796,
      "ĠBluey": 6797,
      "Ġresisted": 6798,
      "ĠMouse": 6799,
      "Ġbackwards": 6800,
      "ongr": 6801,
      "Ġdollhouse": 6802,
      "Ġruining": 6803,
      "Ġslower": 6804,
      "anging": 6805,
      "Ġrecipe": 6806,
      "Ġgenie": 6807,
      "Ġdecorating": 6808,
      "Ġneatly": 6809,
      "ĠRobert": 6810,
      "Ġpuppies": 6811,
      "Ġdamage": 6812,
      "ĠSquirrel": 6813,
      "Nina": 6814,
      "weed": 6815,
      "Ġmer": 6816,
      "inger": 6817,
      "Ġnood": 6818,
      "ĠBinky": 6819,
      "ĠJudy": 6820,
      "Ġfeast": 6821,
      "Ġpeck": 6822,
      "Ġcrew": 6823,
      "ĠGreen": 6824,
      "ĠNina": 6825,
      "Ġsailors": 6826,
      "Ġtails": 6827,
      "Ġacting": 6828,
      "Ġaccomplishment": 6829,
      "Ġsquishy": 6830,
      "ongratul": 6831,
      "Nemo": 6832,
      "tier": 6833,
      "Ġgross": 6834,
      "anes": 6835,
      "ĠListen": 6836,
      "Ġprettier": 6837,
      "Ġsnowfl": 6838,
      "ĠZero": 6839,
      "Ġpraying": 6840,
      "Ġdelivering": 6841,
      "ÅĵYouÃ¢": 6842,
      "ĠFrog": 6843,
      "Ġfamiliar": 6844,
      "Clara": 6845,
      "Whee": 6846,
      "ael": 6847,
      "Ġtouc": 6848,
      "Ġsale": 6849,
      "Ġplucked": 6850,
      "Ġscamp": 6851,
      "ongo": 6852,
      "Ġworn": 6853,
      "plash": 6854,
      "ueen": 6855,
      "Ġwobbled": 6856,
      "Ġpromises": 6857,
      "ichael": 6858,
      "Ġexpress": 6859,
      "Ġbasement": 6860,
      "Ġwiggle": 6861,
      "Roar": 6862,
      "Ġsnuggle": 6863,
      "Ġsponge": 6864,
      "eese": 6865,
      "itude": 6866,
      "ĠTuna": 6867,
      "Ġsofter": 6868,
      "Ġspices": 6869,
      "ĠAng": 6870,
      "Ġcoc": 6871,
      "Ġpecked": 6872,
      "Ġthroughout": 6873,
      "Ġdropping": 6874,
      "Ġjoyful": 6875,
      "Meow": 6876,
      "Ġbreathed": 6877,
      "Tweety": 6878,
      "Ġguests": 6879,
      "Have": 6880,
      "iel": 6881,
      "Ġsan": 6882,
      "Ġwept": 6883,
      "choo": 6884,
      "child": 6885,
      "Ġneither": 6886,
      "ĠMira": 6887,
      "Ġalien": 6888,
      "Ġage": 6889,
      "ÅĵMy": 6890,
      "Ġconvers": 6891,
      "Ġseaweed": 6892,
      "Ġvanilla": 6893,
      "ĠUntil": 6894,
      "Ġgrandchild": 6895,
      "Ġenthusi": 6896,
      "Ġbuzzed": 6897,
      "ĠRobbie": 6898,
      "Ġconfl": 6899,
      "Ġincreased": 6900,
      "ably": 6901,
      "ĠQueen": 6902,
      "Baby": 6903,
      "lves": 6904,
      "erate": 6905,
      "Ġocc": 6906,
      "Ġrout": 6907,
      "ĠMickey": 6908,
      "Ġblast": 6909,
      "arac": 6910,
      "Ġdollars": 6911,
      "Ġthrown": 6912,
      "uggles": 6913,
      "ĠThanks": 6914,
      "Ġgasp": 6915,
      "Ġpostman": 6916,
      "Ġsurrendered": 6917,
      "Ġyielded": 6918,
      "Ġenthusiasm": 6919,
      "Br": 6920,
      "Tw": 6921,
      "iment": 6922,
      "Ġstain": 6923,
      "Ġstung": 6924,
      "Ġchos": 6925,
      "Ġexplo": 6926,
      "Ġhops": 6927,
      "Ġgrowls": 6928,
      "Ġignoring": 6929,
      "ĠSnuggles": 6930,
      "Ġmushrooms": 6931,
      "Ġcubes": 6932,
      "Ġrustling": 6933,
      "Ġfocused": 6934,
      "Ġchosen": 6935,
      "Boo": 6936,
      "Ġmarshmallow": 6937,
      "Ġgeese": 6938,
      "ĠSophia": 6939,
      "Ġthorn": 6940,
      "Ġstool": 6941,
      "Ġneare": 6942,
      "Ġleast": 6943,
      "Ġflight": 6944,
      "ĠEx": 6945,
      "Ġintrigued": 6946,
      "aura": 6947,
      "Ġexplorer": 6948,
      "Ġache": 6949,
      "athan": 6950,
      "Ġamount": 6951,
      "Ġshops": 6952,
      "Ġhopeful": 6953,
      "Ġmatters": 6954,
      "Ġhonked": 6955,
      "Ġpaths": 6956,
      "ertain": 6957,
      "Ġtoaster": 6958,
      "years": 6959,
      "Ġscraped": 6960,
      "Ġpassengers": 6961,
      "Fo": 6962,
      "Pe": 6963,
      "Surpr": 6964,
      "abby": 6965,
      "yan": 6966,
      "Ġplain": 6967,
      "allowed": 6968,
      "Ġswallowed": 6969,
      "Ġsmallest": 6970,
      "ĠRalph": 6971,
      "Ġcuriously": 6972,
      "Ġsails": 6973,
      "Ġrespond": 6974,
      "Ġlifting": 6975,
      "Ġbatteries": 6976,
      "Ġappreciation": 6977,
      "Ġwaddled": 6978,
      "Ruby": 6979,
      "while": 6980,
      "Ġais": 6981,
      "Ġdie": 6982,
      "ĠSque": 6983,
      "Ġspins": 6984,
      "Ġcharac": 6985,
      "Ġpuff": 6986,
      "ĠThose": 6987,
      "Ġdrawers": 6988,
      "Ġtalks": 6989,
      "Ġshaped": 6990,
      "Ġhealing": 6991,
      "Ġrespected": 6992,
      "Ġtested": 6993,
      "Ġsunflowers": 6994,
      "Ġencourag": 6995,
      "Ġtriangles": 6996,
      "Ġtrembled": 6997,
      "Ġwider": 6998,
      "Ġchefs": 6999,
      "ĠFriends": 7000,
      "Ġcousin": 7001,
      "Ġscampered": 7002,
      "Ġsank": 7003,
      "Ġcharacter": 7004,
      "Kim": 7005,
      "Yummy": 7006,
      "rey": 7007,
      "ition": 7008,
      "Ġnibb": 7009,
      "Ġkittens": 7010,
      "Ġglued": 7011,
      "Ġremembering": 7012,
      "Ġhides": 7013,
      "Ġstreets": 7014,
      "ĠOur": 7015,
      "ĠStella": 7016,
      "Ġcushions": 7017,
      "Ġsymbols": 7018,
      "Ġbehaving": 7019,
      "Blue": 7020,
      "Ġrushing": 7021,
      "cake": 7022,
      "unched": 7023,
      "ĠJax": 7024,
      "Ġscient": 7025,
      "Ġdads": 7026,
      "Ġtrot": 7027,
      "Ġgardener": 7028,
      "ÅĵNow": 7029,
      "Ġdances": 7030,
      "Ġwrink": 7031,
      "ĠRock": 7032,
      "Ġcausing": 7033,
      "ĠStan": 7034,
      "Ġfeeding": 7035,
      "Ġstudents": 7036,
      "Ġscrewd": 7037,
      "Ġproper": 7038,
      "Ġunsure": 7039,
      "Ġtouches": 7040,
      "Ġscientist": 7041,
      "Jul": 7042,
      "Lilly": 7043,
      "Tr": 7044,
      "Ġdod": 7045,
      "Ġscored": 7046,
      "Ġflown": 7047,
      "Ġdresser": 7048,
      "Ġcrashing": 7049,
      "Ġedges": 7050,
      "Quick": 7051,
      "ĠBirthday": 7052,
      "Ġfreedom": 7053,
      "--": 7054,
      "Back": 7055,
      "Even": 7056,
      "fire": 7057,
      "Ġdaring": 7058,
      "Ġnine": 7059,
      "Ġnotes": 7060,
      "Ġreason": 7061,
      "Ġmanag": 7062,
      "Ġposs": 7063,
      "emma": 7064,
      "ĠJoan": 7065,
      "Ġprove": 7066,
      "Ġcorners": 7067,
      "Ġwiping": 7068,
      "Ġtwisty": 7069,
      "Ġthud": 7070,
      "Ġrefreshing": 7071,
      "Ġfirmly": 7072,
      "Ġdefin": 7073,
      "Ġnoodles": 7074,
      "Ġscrewdriver": 7075,
      "During": 7076,
      "Sadly": 7077,
      "Ġtuck": 7078,
      "Ġsy": 7079,
      "Ġmunch": 7080,
      "Ġoh": 7081,
      "stick": 7082,
      "endy": 7083,
      "aula": 7084,
      "Ġadults": 7085,
      "Ġfinal": 7086,
      "Ġfinishing": 7087,
      "acles": 7088,
      "Ġnearly": 7089,
      "Ġstrongest": 7090,
      "ĠNobody": 7091,
      "Ġdived": 7092,
      "Ġcrossing": 7093,
      "Ġheroes": 7094,
      "Ġswans": 7095,
      "Ġperforming": 7096,
      "Ġsurfing": 7097,
      "Ġzebras": 7098,
      "Ġsuperheroes": 7099,
      "Ġmarshmallows": 7100,
      "Jerry": 7101,
      "Ġcoral": 7102,
      "Ġmoo": 7103,
      "Ġsadd": 7104,
      "Ġonward": 7105,
      "ĠBongo": 7106,
      "Ġspikes": 7107,
      "Ġswords": 7108,
      "Ġposter": 7109,
      "ĠCra": 7110,
      "Ġwobbly": 7111,
      "Ġdefe": 7112,
      "Ġchopped": 7113,
      "Ġjoining": 7114,
      "Ġforgets": 7115,
      "Ġexamining": 7116,
      "Ġsuggestion": 7117,
      "Ġsneezing": 7118,
      "Ġsurfboard": 7119,
      "Ġsuffered": 7120,
      "Su": 7121,
      "Woof": 7122,
      "eel": 7123,
      "fia": 7124,
      "Ġaimed": 7125,
      "Ġfaded": 7126,
      "Ġmaster": 7127,
      "Ġpens": 7128,
      "aying": 7129,
      "Ġgest": 7130,
      "Ġreun": 7131,
      "Ġroars": 7132,
      "Ġcosy": 7133,
      "ÅĵWell": 7134,
      "ĠJaney": 7135,
      "Ġmagician": 7136,
      "Ġsteady": 7137,
      "Ġperformed": 7138,
      "Ġtables": 7139,
      "Steve": 7140,
      "Ġbells": 7141,
      "Ġcoop": 7142,
      "Ġfishes": 7143,
      "Ġpresses": 7144,
      "Ġsqueak": 7145,
      "Ġfirefly": 7146,
      "ĠLouise": 7147,
      "Ġreflection": 7148,
      "Ġdefinitely": 7149,
      "Ġwag": 7150,
      "ĠTake": 7151,
      "ĠSc": 7152,
      "imon": 7153,
      "cky": 7154,
      "sty": 7155,
      "Ġplaytime": 7156,
      "idey": 7157,
      "ĠWally": 7158,
      "Ġsled": 7159,
      "Ġraces": 7160,
      "Ġsending": 7161,
      "Ġmesmerized": 7162,
      "Ġencouraging": 7163,
      "Miss": 7164,
      "Oops": 7165,
      "hew": 7166,
      "Ġcertain": 7167,
      "Ġdip": 7168,
      "Ġgears": 7169,
      "ening": 7170,
      "anwhile": 7171,
      "lle": 7172,
      "Ġshown": 7173,
      "Ġscen": 7174,
      "ĠElly": 7175,
      "Ġbravest": 7176,
      "Whenever": 7177,
      "Ġcolder": 7178,
      "ounce": 7179,
      "attered": 7180,
      "Ġloading": 7181,
      "Ġburying": 7182,
      "ĠBirdy": 7183,
      "Ġslammed": 7184,
      "Ġechoed": 7185,
      "Ġwarrior": 7186,
      "espite": 7187,
      "Ġfant": 7188,
      "Ġhen": 7189,
      "onse": 7190,
      "onna": 7191,
      "Ġinj": 7192,
      "Ġease": 7193,
      "Ġund": 7194,
      "Ġplayroom": 7195,
      "ugs": 7196,
      "Ġcharge": 7197,
      "roken": 7198,
      "ĠFuzzy": 7199,
      "Ġslips": 7200,
      "otten": 7201,
      "Ġfits": 7202,
      "Ġresponse": 7203,
      "ĠStay": 7204,
      "Ġnecklaces": 7205,
      "Ġdesigns": 7206,
      "Ġpreparing": 7207,
      "Ġefforts": 7208,
      "Ġpupils": 7209,
      "Ġtravelling": 7210,
      "Frank": 7211,
      "Ġoccas": 7212,
      "Ġfantastic": 7213,
      "Like": 7214,
      "Ġtossed": 7215,
      "Ġgonna": 7216,
      "elvet": 7217,
      "Ġbraver": 7218,
      "Ġmonths": 7219,
      "Ġlessons": 7220,
      "ĠKelly": 7221,
      "Ġbaths": 7222,
      "Ġstands": 7223,
      "Ġbaskets": 7224,
      "Ġlifts": 7225,
      "Ġpuzzled": 7226,
      "ĠAlthough": 7227,
      "Ġpays": 7228,
      "Ġawo": 7229,
      "Ġsuits": 7230,
      "Ġgrandd": 7231,
      "Ġstacked": 7232,
      "Ġresults": 7233,
      "Ġpunishment": 7234,
      "Ġleapt": 7235,
      "ĠAshley": 7236,
      "Ġgrandparents": 7237,
      "Ġmate": 7238,
      "Ġpours": 7239,
      "Ġnapping": 7240,
      "Ġnuzz": 7241,
      "onies": 7242,
      "lets": 7243,
      "Ġev": 7244,
      "Ġearn": 7245,
      "Ġrotten": 7246,
      "rian": 7247,
      "chy": 7248,
      "Ġaside": 7249,
      "ĠWell": 7250,
      "Ġchanging": 7251,
      "Ġrainy": 7252,
      "Ġduckling": 7253,
      "ĠThatÃ¢": 7254,
      "Ġantic": 7255,
      "ĠUnder": 7256,
      "Ġhumans": 7257,
      "Ġlending": 7258,
      "Ġlicking": 7259,
      "ĠQuick": 7260,
      "Car": 7261,
      "Very": 7262,
      "found": 7263,
      "Ġstitches": 7264,
      "Ġbelts": 7265,
      "Ġtablet": 7266,
      "Ġdrivers": 7267,
      "Ġaction": 7268,
      "Ġnervously": 7269,
      "Ġfrowning": 7270,
      "Ġstreamers": 7271,
      "Ġcampfire": 7272,
      "Ġtwinkled": 7273,
      "Ġsewed": 7274,
      "Ġdespite": 7275,
      "Ġ10": 7276,
      "Ġrobber": 7277,
      "Ġconnected": 7278,
      "Ġarranged": 7279,
      "Ġconflict": 7280,
      "Rachel": 7281,
      "mates": 7282,
      "ĠX": 7283,
      "rect": 7284,
      "Ġponies": 7285,
      "ĠSw": 7286,
      "Ġelf": 7287,
      "unity": 7288,
      "ĠMabel": 7289,
      "fus": 7290,
      "nap": 7291,
      "Ġtapped": 7292,
      "Ġwaterfall": 7293,
      "Ġwobble": 7294,
      "Ġwrigg": 7295,
      "Ġpolar": 7296,
      "meal": 7297,
      "Ġpennies": 7298,
      "Ġtidied": 7299,
      "Ġpanicked": 7300,
      "Ġwhispers": 7301,
      "ĠUp": 7302,
      "ĠFinn": 7303,
      "Ġoatmeal": 7304,
      "Ġcorrect": 7305,
      "Tony": 7306,
      "now": 7307,
      "Ġ2": 7308,
      "Ġcongratul": 7309,
      "ĠHolly": 7310,
      "utter": 7311,
      "adie": 7312,
      "ĠSpidey": 7313,
      "Ġwarmer": 7314,
      "Ġblocked": 7315,
      "Ġpolitely": 7316,
      "Ġmailed": 7317,
      "Ġbattle": 7318,
      "ĠStitch": 7319,
      "Ġappreciated": 7320,
      "Ġwhispering": 7321,
      "Ġflavors": 7322,
      "Ġbehavior": 7323,
      "Ġreunited": 7324,
      "Bill": 7325,
      "bage": 7326,
      "bird": 7327,
      "Ġwoof": 7328,
      "innie": 7329,
      "Ġnewfound": 7330,
      "Ġwhose": 7331,
      "ĠDr": 7332,
      "Ġovercome": 7333,
      "Ġsurprising": 7334,
      "Ġtoward": 7335,
      "Ġforests": 7336,
      "Ġcollap": 7337,
      "Ġgarbage": 7338,
      "Ġleads": 7339,
      "Ġotters": 7340,
      "Ġreversed": 7341,
      "rrr": 7342,
      "ĠGranny": 7343,
      "Ġmasterp": 7344,
      "Jamie": 7345,
      "broken": 7346,
      "eedy": 7347,
      "munk": 7348,
      "sers": 7349,
      "Ġtying": 7350,
      "erm": 7351,
      "Ġnur": 7352,
      "ooking": 7353,
      "ighing": 7354,
      "ĠBee": 7355,
      "Ġbru": 7356,
      "Ġprob": 7357,
      "ection": 7358,
      "Ġcleaner": 7359,
      "ĠPr": 7360,
      "Ġdisob": 7361,
      "Ġsweetest": 7362,
      "Ġcalmly": 7363,
      "Ġdriveway": 7364,
      "Ġmaterial": 7365,
      "Ġcottage": 7366,
      "Ġevil": 7367,
      "Ġprobably": 7368,
      "Our": 7369,
      "Since": 7370,
      "Ġsou": 7371,
      "Ġwakes": 7372,
      "Ġpins": 7373,
      "ĠSmo": 7374,
      "ppies": 7375,
      "ĠthatÃ¢": 7376,
      "ĠLove": 7377,
      "Ġsnort": 7378,
      "Ġteles": 7379,
      "ÅĵOf": 7380,
      "Ġstopping": 7381,
      "Ġrains": 7382,
      "Ġbits": 7383,
      "ĠKaren": 7384,
      "Ġdistract": 7385,
      "ounced": 7386,
      "Ġpops": 7387,
      "Ġlaying": 7388,
      "Ġluckily": 7389,
      "Ġscurry": 7390,
      "ĠElsa": 7391,
      "ĠPippin": 7392,
      "Ġmerma": 7393,
      "Follow": 7394,
      "ĠSqueaky": 7395,
      "Ġawoke": 7396,
      "Ġtelescope": 7397,
      "?!\"": 7398,
      "Ros": 7399,
      "crow": 7400,
      "whe": 7401,
      "Ġheight": 7402,
      "veral": 7403,
      "ading": 7404,
      "Ġseveral": 7405,
      "Ġspook": 7406,
      "ĠFire": 7407,
      "Ġwatering": 7408,
      "Ġoffic": 7409,
      "Ġbeautifully": 7410,
      "ÅĵThe": 7411,
      "ĠPet": 7412,
      "Ġbelieving": 7413,
      "Ġaddress": 7414,
      "Ġrisks": 7415,
      "Ġanticip": 7416,
      "mered": 7417,
      "Ġtiss": 7418,
      "Ġlent": 7419,
      "Ġmaker": 7420,
      "ĠMichael": 7421,
      "ÅĵMom": 7422,
      "Ġconqu": 7423,
      "Ġunderstands": 7424,
      "ĠKiki": 7425,
      "Ġsparks": 7426,
      "Ġcloudy": 7427,
      "Ġplanting": 7428,
      "ĠOnly": 7429,
      "Ġscram": 7430,
      "Ġseller": 7431,
      "ĠDavey": 7432,
      "Ġtravels": 7433,
      "Ġartwork": 7434,
      "Ġcobwebs": 7435,
      "ĠMeg": 7436,
      "Ġseashells": 7437,
      "Ġconversation": 7438,
      "Ġspooky": 7439,
      "cher": 7440,
      "upt": 7441,
      "wise": 7442,
      "worm": 7443,
      "Ġgap": 7444,
      "Ġsoaking": 7445,
      "ĠgirlÃ¢": 7446,
      "Ġcoach": 7447,
      "ĠLaura": 7448,
      "Ġposit": 7449,
      "Ġthoughts": 7450,
      "Ġslither": 7451,
      "Ġuntie": 7452,
      "Ġtricycle": 7453,
      "Ġworrying": 7454,
      "Ġcraft": 7455,
      "Ġgrows": 7456,
      "Ġvegg": 7457,
      "Ġheartbroken": 7458,
      "Ġmints": 7459,
      "ĠAlong": 7460,
      "Ġtires": 7461,
      "Ġoysters": 7462,
      "azing": 7463,
      "Ġloops": 7464,
      "Ġinsisting": 7465,
      "Ġrotting": 7466,
      "Ġadmiration": 7467,
      "Ġbrushing": 7468,
      "Ġcongratulated": 7469,
      "Abigail": 7470,
      "Beth": 7471,
      "Penny": 7472,
      "aven": 7473,
      "cent": 7474,
      "Ġtar": 7475,
      "Ġaim": 7476,
      "Ġsill": 7477,
      "ĠTry": 7478,
      "idence": 7479,
      "Ġni": 7480,
      "rier": 7481,
      "Ġshady": 7482,
      "Ġanger": 7483,
      "Ġpoppies": 7484,
      "bbling": 7485,
      "ĠJojo": 7486,
      "ÅĵOkay": 7487,
      "ÅĵWhere": 7488,
      "Ġbusiness": 7489,
      "Ġfills": 7490,
      "Ġtighter": 7491,
      "Ġsniffs": 7492,
      "Ġpermitted": 7493,
      "Ġpurr": 7494,
      "Ġdiscussing": 7495,
      "Ġresponsib": 7496,
      "Ġdamaged": 7497,
      "Ġforgiving": 7498,
      "Ġchipmunk": 7499,
      "Ġconduct": 7500,
      "Surprise": 7501,
      "Ġmasterpiece": 7502,
      "Ġanticipation": 7503,
      "Adam": 7504,
      "Mad": 7505,
      "isions": 7506,
      "anie": 7507,
      "Ġshoo": 7508,
      "Ġreapp": 7509,
      "Ġexcept": 7510,
      "Ġmemb": 7511,
      "âĤ¬,": 7512,
      "ĠLena": 7513,
      "Ġgoodby": 7514,
      "Ġdoorway": 7515,
      "ĠGary": 7516,
      "Ġbiting": 7517,
      "Ġbelongings": 7518,
      "Ġsurv": 7519,
      "Ġchocolates": 7520,
      "Ġapologised": 7521,
      "Ġdiamonds": 7522,
      "Ġrepeating": 7523,
      "Ġbreathing": 7524,
      "Ġtubes": 7525,
      "ĠVelvet": 7526,
      "Ġpuppet": 7527,
      "citedly": 7528,
      "ĠAngel": 7529,
      "Ġtrotted": 7530,
      "eeling": 7531,
      "Ġveggies": 7532,
      "Ġmembers": 7533,
      "bi": 7534,
      "sm": 7535,
      "Ġmood": 7536,
      "ammy": 7537,
      "ĠIm": 7538,
      "elie": 7539,
      "ĠBow": 7540,
      "Ġknots": 7541,
      "Ġalthough": 7542,
      "Ġflips": 7543,
      "Ġqui": 7544,
      "asty": 7545,
      "Ġcounts": 7546,
      "Ġreminding": 7547,
      "Ġwisely": 7548,
      "Ġcovering": 7549,
      "Ġsniffing": 7550,
      "ĠPatty": 7551,
      "Ġspells": 7552,
      "Ġsqueaked": 7553,
      "Ġvehicles": 7554,
      "Ġsewing": 7555,
      "Ġaccomplished": 7556,
      "ĠMartha": 7557,
      "Ġcowboy": 7558,
      "Ġrefuse": 7559,
      "Ġcocoon": 7560,
      "Ġscrambled": 7561,
      "Ġconductor": 7562,
      "Ġgoodbyes": 7563,
      "pes": 7564,
      "please": 7565,
      "rup": 7566,
      "vant": 7567,
      "Ġdot": 7568,
      "Ġpound": 7569,
      "isc": 7570,
      "ĠSplash": 7571,
      "ĠHallow": 7572,
      "ĠHelen": 7573,
      "Ġyel": 7574,
      "Ġstumble": 7575,
      "ĠWendy": 7576,
      "Ġdecisions": 7577,
      "Ġblinking": 7578,
      "Ġcleared": 7579,
      "ĠCle": 7580,
      "Ġfins": 7581,
      "Ġunw": 7582,
      "acy": 7583,
      "ĠRyan": 7584,
      "Ġsmelling": 7585,
      "Ġpackages": 7586,
      "ÅĵIf": 7587,
      "ĠStar": 7588,
      "Ġpleaded": 7589,
      "Ġtrusting": 7590,
      "undred": 7591,
      "ĠFreddie": 7592,
      "Ġpigeons": 7593,
      "Ġshovels": 7594,
      "manda": 7595,
      "Ġexercises": 7596,
      "Ġquarreling": 7597,
      "Ġpassports": 7598,
      "Ġwiggly": 7599,
      "ĠFroggy": 7600,
      "Ġmermaid": 7601,
      "Ġquieter": 7602,
      "ĠHalloween": 7603,
      "Hannah": 7604,
      "Mimi": 7605,
      "but": 7606,
      "dress": 7607,
      "line": 7608,
      "its": 7609,
      "Ġgerm": 7610,
      "Ġgazing": 7611,
      "ĠMag": 7612,
      "ĠAny": 7613,
      "ighting": 7614,
      "Ġflick": 7615,
      "Ġvines": 7616,
      "antha": 7617,
      "Ġslipping": 7618,
      "Ġhanding": 7619,
      "ĠPin": 7620,
      "Ġsquir": 7621,
      "ĠNana": 7622,
      "Ġhairdress": 7623,
      "Ġvisitor": 7624,
      "Ġteachers": 7625,
      "Ġimages": 7626,
      "Ġhonking": 7627,
      "Ġshrunk": 7628,
      "Ġsolving": 7629,
      "Ġprayers": 7630,
      "Ġfigures": 7631,
      "illiam": 7632,
      "Ġcuddles": 7633,
      "Ġpedaled": 7634,
      "...\"": 7635,
      "Ġannoyed": 7636,
      "Ġreassured": 7637,
      "Ġsyrup": 7638,
      "Ġgesture": 7639,
      "Ġtarget": 7640,
      "Ġyelped": 7641,
      "Listen": 7642,
      "father": 7643,
      "vroom": 7644,
      "rew": 7645,
      "Ġcoug": 7646,
      "Ġrin": 7647,
      "Ġlasers": 7648,
      "Ġdecl": 7649,
      "Ġgoodies": 7650,
      "Ġflip": 7651,
      "Ġthanking": 7652,
      "iona": 7653,
      "Ġjoked": 7654,
      "ilda": 7655,
      "ÅĵBut": 7656,
      "Ġdangers": 7657,
      "ĠGina": 7658,
      "ĠSpeedy": 7659,
      "Ġpaintbrush": 7660,
      "Ġbandages": 7661,
      "Ġgenerosity": 7662,
      "Ġsqueezing": 7663,
      "Ġdiscoveries": 7664,
      "ĠMikey": 7665,
      "Ġspeeding": 7666,
      "Ġdisturbing": 7667,
      "ĠSnowman": 7668,
      "Ġemerged": 7669,
      "belle": 7670,
      "Ġexperienced": 7671,
      "Je": 7672,
      "Ġtumbled": 7673,
      "Ġdump": 7674,
      "Ġnasty": 7675,
      "ĠSl": 7676,
      "str": 7677,
      "Ġspat": 7678,
      "inkle": 7679,
      "Ġuntied": 7680,
      "Ġconvin": 7681,
      "Ġwarmly": 7682,
      "ĠRain": 7683,
      "Ġafar": 7684,
      "ĠAli": 7685,
      "ĠZara": 7686,
      "Ġtwisting": 7687,
      "Ġbracelets": 7688,
      "Tweetie": 7689,
      "asmine": 7690,
      "Ġtype": 7691,
      "Ġinstruments": 7692,
      "Ġconcert": 7693,
      "steps": 7694,
      "Ġhairdresser": 7695,
      "Bet": 7696,
      "Joy": 7697,
      "cie": 7698,
      "da": 7699,
      "gain": 7700,
      "ware": 7701,
      "Ġties": 7702,
      "order": 7703,
      "Ġrays": 7704,
      "Ġweeds": 7705,
      "ĠBecause": 7706,
      "Ġscent": 7707,
      "Ġchilly": 7708,
      "ĠSofia": 7709,
      "Ġcheers": 7710,
      "ctric": 7711,
      "Ġstored": 7712,
      "acle": 7713,
      "Ġdressing": 7714,
      "Ġpresented": 7715,
      "Ġguessing": 7716,
      "Ġargum": 7717,
      "Ġscooters": 7718,
      "Ġsupported": 7719,
      "Ġstomp": 7720,
      "Ġincreasing": 7721,
      "Ġuniforms": 7722,
      "Ġsuffering": 7723,
      "intment": 7724,
      "ĠElsie": 7725,
      "Ġinspired": 7726,
      "Ġforgiveness": 7727,
      "Ġsnowflakes": 7728,
      "Ġnearest": 7729,
      "Ġaisle": 7730,
      "Ġnibbled": 7731,
      "Ġwrinkled": 7732,
      "Ġofficers": 7733,
      "Jess": 7734,
      "Mine": 7735,
      "mies": 7736,
      "pit": 7737,
      "Ġtipped": 7738,
      "ilities": 7739,
      "ĠHoney": 7740,
      "Ġrather": 7741,
      "Ġforce": 7742,
      "Ġflock": 7743,
      "ĠDin": 7744,
      "Ġtrans": 7745,
      "ÅĵHey": 7746,
      "ÅĵPlease": 7747,
      "Ġcons": 7748,
      "Ġunfortunately": 7749,
      "ĠNan": 7750,
      "ĠRay": 7751,
      "issa": 7752,
      "Ġjud": 7753,
      "Ġmarve": 7754,
      "Ġfoxes": 7755,
      "Ġbeeh": 7756,
      "Ġfootsteps": 7757,
      "Ġtoolbox": 7758,
      "Ġrobots": 7759,
      "ĠZoomy": 7760,
      "Ġangels": 7761,
      "Always": 7762,
      "Ġscarecrow": 7763,
      "Ġshorts": 7764,
      "Ġconfidence": 7765,
      "Ġdelayed": 7766,
      "ĠFrosty": 7767,
      "ĠClaus": 7768,
      "Ġswayed": 7769,
      "Ġseagulls": 7770,
      "Ġopport": 7771,
      "Ġoppos": 7772,
      "what": 7773,
      "Ġhundred": 7774,
      "ĠTiger": 7775,
      "ĠIzzy": 7776,
      "Ġwithin": 7777,
      "Ġmanners": 7778,
      "Ġtreated": 7779,
      "ÅĵGood": 7780,
      "Ġswimmer": 7781,
      "Ġcupcake": 7782,
      "ĠFlo": 7783,
      "ordinary": 7784,
      "ails": 7785,
      "ĠOther": 7786,
      "Ġhumming": 7787,
      "Ġfrowns": 7788,
      "Ġsharks": 7789,
      "Ġwealth": 7790,
      "Ġsweat": 7791,
      "Ġgrandson": 7792,
      "Ġgrandfather": 7793,
      "Chloe": 7794,
      "Ġstroke": 7795,
      "Anne": 7796,
      "Ġactivity": 7797,
      "Ġencouragement": 7798,
      "ĠChris": 7799,
      "Ġcotton": 7800,
      "Ġroutine": 7801,
      "Ġgranddaughter": 7802,
      "Ġtissue": 7803,
      "Each": 7804,
      "Ralph": 7805,
      "Watch": 7806,
      "even": 7807,
      "ibbit": 7808,
      "Ġting": 7809,
      "Ġtoss": 7810,
      "Ġsav": 7811,
      "Ġshall": 7812,
      "Ġjars": 7813,
      "artled": 7814,
      "Ġwhoever": 7815,
      "ĠLion": 7816,
      "Ġquilt": 7817,
      "Ġsquished": 7818,
      "Ġelectric": 7819,
      "Ġextraordinary": 7820,
      "Ġtoothbrush": 7821,
      "Ġsimply": 7822,
      "Ġspills": 7823,
      "Ġpeeled": 7824,
      "Ġresponded": 7825,
      "Ġmanager": 7826,
      "iscuit": 7827,
      "Ġopposite": 7828,
      "Am": 7829,
      "Bunny": 7830,
      "Out": 7831,
      "Rob": 7832,
      "Ted": 7833,
      "bank": 7834,
      "ilted": 7835,
      "Ġsmashed": 7836,
      "Ġjugg": 7837,
      "Ġexch": 7838,
      "Ġclues": 7839,
      "ĠElle": 7840,
      "Ġswo": 7841,
      "ĠFighting": 7842,
      "Ġtweet": 7843,
      "Ġjoins": 7844,
      "Ġwinding": 7845,
      "sol": 7846,
      "Ġtasting": 7847,
      "Ġdecoration": 7848,
      "Ġteams": 7849,
      "Meanwhile": 7850,
      "Ġsteering": 7851,
      "Ġcharacters": 7852,
      "Ġnuzzled": 7853,
      "Ġscurrying": 7854,
      "Karen": 7855,
      "Mat": 7856,
      "Take": 7857,
      "hil": 7858,
      "we": 7859,
      "Ġbou": 7860,
      "ĠTaking": 7861,
      "ats": 7862,
      "ĠSimon": 7863,
      "onnie": 7864,
      "Ġbeating": 7865,
      "lyn": 7866,
      "Ġsped": 7867,
      "ĠAva": 7868,
      "ĠWelcome": 7869,
      "quet": 7870,
      "Ġblond": 7871,
      "ĠDespite": 7872,
      "Ġtwenty": 7873,
      "Ġfond": 7874,
      "Ġgardens": 7875,
      "Ġraising": 7876,
      "Ġhardest": 7877,
      "ÅĵWho": 7878,
      "Ġdrown": 7879,
      "Ġdripping": 7880,
      "ugging": 7881,
      "Ġpurpose": 7882,
      "Ġprick": 7883,
      "Ġtentacles": 7884,
      "Ġaware": 7885,
      "Ġsweep": 7886,
      "Ġsweaty": 7887,
      "ĠDaniel": 7888,
      "Ġswaying": 7889,
      "Ġbeaming": 7890,
      "Ġcustomers": 7891,
      "Rosie": 7892,
      "Ġbeehive": 7893,
      "Ġswollen": 7894,
      "Any": 7895,
      "Get": 7896,
      "Tilly": 7897,
      "pen": 7898,
      "ĠOkay": 7899,
      "rest": 7900,
      "Ġgrip": 7901,
      "oration": 7902,
      "Ġramp": 7903,
      "Ġstall": 7904,
      "Ġrely": 7905,
      "Ġbirdhouse": 7906,
      "Ġflipped": 7907,
      "ortunately": 7908,
      "empt": 7909,
      "ĠJoanna": 7910,
      "bee": 7911,
      "ĠGinger": 7912,
      "Ġdisc": 7913,
      "Ġslowed": 7914,
      "spe": 7915,
      "Ġvisits": 7916,
      "Ġjobs": 7917,
      "Ġattempt": 7918,
      "Ġnests": 7919,
      "Ġstorms": 7920,
      "Ġreminds": 7921,
      "Ġmagnif": 7922,
      "Ġencount": 7923,
      "Ġstatues": 7924,
      "Ġmillion": 7925,
      "Ġrepairman": 7926,
      "Ġdisplayed": 7927,
      "Ġnovels": 7928,
      "Ġbothering": 7929,
      "ĠLibby": 7930,
      "Two": 7931,
      "Ġcollapsed": 7932,
      "Ġdeclared": 7933,
      "Ġtransf": 7934,
      "Ġbouquet": 7935,
      "Dear": 7936,
      "Mon": 7937,
      "emy": 7938,
      "oor": 7939,
      "Ġhoo": 7940,
      "Ġdep": 7941,
      "orter": 7942,
      "Ġyumm": 7943,
      "Ġsoot": 7944,
      "storm": 7945,
      "Ġform": 7946,
      "Ġshimmering": 7947,
      "Ġkings": 7948,
      "Ġloc": 7949,
      "Ġnodd": 7950,
      "Ġchanges": 7951,
      "Ġenemy": 7952,
      "Ġwaters": 7953,
      "Ġends": 7954,
      "Ġsnug": 7955,
      "Ġglob": 7956,
      "Ġnights": 7957,
      "ĠRu": 7958,
      "Ġcomforting": 7959,
      "Ġtidying": 7960,
      "Ġrelaxing": 7961,
      "Ġcrowns": 7962,
      "Ġclearly": 7963,
      "Ġquestioned": 7964,
      "Ġlipstick": 7965,
      "Ġmagazines": 7966,
      "Ġinchworm": 7967,
      "Ġflashing": 7968,
      "Ġgerms": 7969,
      "Ġconsid": 7970,
      "Ġglobe": 7971,
      "Boys": 7972,
      "uel": 7973,
      "Ġdarl": 7974,
      "atitude": 7975,
      "ances": 7976,
      "rie": 7977,
      "Ġlies": 7978,
      "ended": 7979,
      "ĠAbi": 7980,
      "romise": 7981,
      "Ġgratitude": 7982,
      "ĠPaula": 7983,
      "athy": 7984,
      "Ġguide": 7985,
      "Ġexpert": 7986,
      "Ġself": 7987,
      "Ġpizzas": 7988,
      "Beep": 7989,
      "Ġcamel": 7990,
      "Ġwindowsill": 7991,
      "Ġvibr": 7992,
      "Ġmosquitoes": 7993,
      "Ġmeowing": 7994,
      "Ġfocus": 7995,
      "ĠPippa": 7996,
      "Ġthorns": 7997,
      "ĠJoanne": 7998,
      "Ġargument": 7999,
      "Ġdarlings": 8000,
      "Cindy": 8001,
      "Too": 8002,
      "ae": 8003,
      "hind": 8004,
      "ulp": 8005,
      "Ġbitten": 8006,
      "Ġwasting": 8007,
      "Ġuna": 8008,
      "ppa": 8009,
      "ĠmomÃ¢": 8010,
      "ĠBrian": 8011,
      "Ġsculp": 8012,
      "ift": 8013,
      "ĠLooking": 8014,
      "Ġtearing": 8015,
      "ĠCurious": 8016,
      "ÅĵSee": 8017,
      "Ġdoorbell": 8018,
      "ĠSpring": 8019,
      "Ġmovements": 8020,
      "Ġriverbank": 8021,
      "Ġsmoking": 8022,
      "Ġpicnics": 8023,
      "ĠAlan": 8024,
      "Ġsoapy": 8025,
      "Ġturtles": 8026,
      "Ġenviron": 8027,
      "Ġbeeped": 8028,
      "Ġprevented": 8029,
      "Ġobeyed": 8030,
      "Ġglittering": 8031,
      "Ġclicked": 8032,
      "Ġattacked": 8033,
      "Ġexpression": 8034,
      "Julie": 8035,
      "Ġmunching": 8036,
      "Ġsadder": 8037,
      "Ġcorrectly": 8038,
      "Ġconvinced": 8039,
      "Ġenvironment": 8040,
      "Mira": 8041,
      "earing": 8042,
      "po": 8043,
      "Ġtumm": 8044,
      "ering": 8045,
      "Ġheaven": 8046,
      "ĠSatur": 8047,
      "Ġrowed": 8048,
      "ĠBarry": 8049,
      "ĠMother": 8050,
      "Ġloses": 8051,
      "Ġscri": 8052,
      "ĠEva": 8053,
      "ĠDory": 8054,
      "anted": 8055,
      "Ġbrains": 8056,
      "Yesterday": 8057,
      "ÅĵSure": 8058,
      "ĠPretty": 8059,
      "ipes": 8060,
      "LetÃ¢": 8061,
      "Ġbrightest": 8062,
      "Ġsquaw": 8063,
      "Ġsandpit": 8064,
      "uffin": 8065,
      "Ġsprout": 8066,
      "Ġwhistles": 8067,
      "Ġgiggles": 8068,
      "Ġminds": 8069,
      "Ġbanged": 8070,
      "Ġcheaper": 8071,
      "Ġlanguages": 8072,
      "Ġsprinkle": 8073,
      "Ġbothered": 8074,
      "Ġpurrs": 8075,
      "Ġinstrument": 8076,
      "Ġnurses": 8077,
      "Ġnibble": 8078,
      "Ġsurvive": 8079,
      "Ġencountered": 8080,
      "Ġtummies": 8081,
      "ĠSaturday": 8082,
      "Ol": 8083,
      "rily": 8084,
      "water": 8085,
      "Ġgall": 8086,
      "ĠSnap": 8087,
      "ĠMina": 8088,
      "ĠAna": 8089,
      "aret": 8090,
      "Ġfailed": 8091,
      "Ġswitched": 8092,
      "usty": 8093,
      "Ġcares": 8094,
      "ĠMomma": 8095,
      "ĠCara": 8096,
      "ĠRavi": 8097,
      "Ġparted": 8098,
      "boards": 8099,
      "Ġvisitors": 8100,
      "Ġcaw": 8101,
      "Ġdesigning": 8102,
      "Goodnight": 8103,
      "Ġrecorder": 8104,
      "Ġclassmates": 8105,
      "Ġships": 8106,
      "Ġcracks": 8107,
      "Ġcheckout": 8108,
      "Ġpepperoni": 8109,
      "ĠRoger": 8110,
      "Leave": 8111,
      "ĠJean": 8112,
      "ĠKevin": 8113,
      "Ġoutfits": 8114,
      "ĠJonny": 8115,
      "Ġastronauts": 8116,
      "Ġexploded": 8117,
      "ĠCrabby": 8118,
      "Bang": 8119,
      "Liz": 8120,
      "opper": 8121,
      "val": 8122,
      "Ġtin": 8123,
      "Ġbuddy": 8124,
      "ative": 8125,
      "ĠShelly": 8126,
      "Ġsheets": 8127,
      "elope": 8128,
      "ittered": 8129,
      "Ġwhoo": 8130,
      "Ġkilled": 8131,
      "Ġbond": 8132,
      "getic": 8133,
      "Ġflashed": 8134,
      "arable": 8135,
      "ĠNora": 8136,
      "Ġfloors": 8137,
      "Ġcompan": 8138,
      "Ġinstantly": 8139,
      "Ġtroubles": 8140,
      "ĠStrip": 8141,
      "Ġhangers": 8142,
      "Alright": 8143,
      "Ġunlo": 8144,
      "Ġrescuing": 8145,
      "ĠPatch": 8146,
      "Ġunpacking": 8147,
      "Ġfilms": 8148,
      "Ġtraveling": 8149,
      "Ġapplauding": 8150,
      "Ġcontainer": 8151,
      "Ġspits": 8152,
      "ĠMegan": 8153,
      "Ġflaps": 8154,
      "Ġtextures": 8155,
      "Ġsternly": 8156,
      "Ġoccasion": 8157,
      "Ġdisobey": 8158,
      "Jeff": 8159,
      "Ke": 8160,
      "Papa": 8161,
      "bu": 8162,
      "Ġfain": 8163,
      "anced": 8164,
      "eline": 8165,
      "ĠMan": 8166,
      "ĠMaisy": 8167,
      "Ġsometime": 8168,
      "ĠFel": 8169,
      "Ġfires": 8170,
      "Ġimaginary": 8171,
      "Ġpractised": 8172,
      "Ġcheerfully": 8173,
      "Ġcomputers": 8174,
      "Ġcrocodiles": 8175,
      "Ġmischie": 8176,
      "udged": 8177,
      "Ġtaped": 8178,
      "Ġinsep": 8179,
      "Ġairplanes": 8180,
      "Ġexpecting": 8181,
      "ĠBobbie": 8182,
      "Someone": 8183,
      "ĠPinchy": 8184,
      "Ġmischievous": 8185,
      "David": 8186,
      "Poppy": 8187,
      "lt": 8188,
      "lied": 8189,
      "oc": 8190,
      "pr": 8191,
      "Ġill": 8192,
      "ita": 8193,
      "erk": 8194,
      "Ġnatur": 8195,
      "ĠSk": 8196,
      "Ġyum": 8197,
      "amma": 8198,
      "Ġsmelt": 8199,
      "Ġseals": 8200,
      "ĠAmanda": 8201,
      "ĠYouÃ¢": 8202,
      "ĠLy": 8203,
      "Ġchin": 8204,
      "bba": 8205,
      "Ġoverhead": 8206,
      "Ġexploration": 8207,
      "Ġdeed": 8208,
      "Ġsquinted": 8209,
      "Ġbuses": 8210,
      "airy": 8211,
      "Ġelbow": 8212,
      "Ġtownspe": 8213,
      "Ġmattered": 8214,
      "Ġbreaths": 8215,
      "Ġtickling": 8216,
      "Ġscrub": 8217,
      "ĠBecky": 8218,
      "Ġcrawls": 8219,
      "Ġwiser": 8220,
      "Ġorders": 8221,
      "ĠFinny": 8222,
      "Ġerase": 8223,
      "Ġexplains": 8224,
      "Ġobserving": 8225,
      "Ġpaddling": 8226,
      "ĠJanie": 8227,
      "Freddy": 8228,
      "Ġparticularly": 8229,
      "Ġconquered": 8230,
      "Ġcompanion": 8231,
      "Ġinseparable": 8232,
      "Ġtownspeople": 8233,
      "Cla": 8234,
      "Honey": 8235,
      "flowers": 8236,
      "hny": 8237,
      "py": 8238,
      "Ġbound": 8239,
      "Ġwaded": 8240,
      "ators": 8241,
      "ĠBer": 8242,
      "Ġrewards": 8243,
      "Ġspy": 8244,
      "asant": 8245,
      "Ġtraded": 8246,
      "Ġskies": 8247,
      "Momma": 8248,
      "Ġchecks": 8249,
      "ĠPen": 8250,
      "Ġforgives": 8251,
      "Ġsingers": 8252,
      "Ġsets": 8253,
      "Ġzooms": 8254,
      "Ġrobin": 8255,
      "Ġsprays": 8256,
      "ĠAlbert": 8257,
      "Ġrats": 8258,
      "Ġterrified": 8259,
      "Ġghosts": 8260,
      "Ġvests": 8261,
      "ĠMaddie": 8262,
      "Brown": 8263,
      "Ġnodding": 8264,
      "Claire": 8265,
      "Milo": 8266,
      "Zoe": 8267,
      "belt": 8268,
      "five": 8269,
      "lo": 8270,
      "lers": 8271,
      "olp": 8272,
      "rough": 8273,
      "Ġicing": 8274,
      "ĠTy": 8275,
      "Ġhaven": 8276,
      "ĠSadie": 8277,
      "llas": 8278,
      "ĠHope": 8279,
      "otch": 8280,
      "Ġshallow": 8281,
      "Ġclerk": 8282,
      "ĠWilliam": 8283,
      "Ġsurely": 8284,
      "Ġsandy": 8285,
      "ĠDog": 8286,
      "Jacky": 8287,
      "asha": 8288,
      "Ġpetting": 8289,
      "Ġembra": 8290,
      "Ġsupplied": 8291,
      "Stay": 8292,
      "Ġstretches": 8293,
      "Ġpinching": 8294,
      "Ġawful": 8295,
      "Ġawhile": 8296,
      "ivia": 8297,
      "Ġscratching": 8298,
      "ĠMarie": 8299,
      "Ġumbrellas": 8300,
      "udolp": 8301,
      "Ġscolds": 8302,
      "Ġapplause": 8303,
      "ĠSeeing": 8304,
      "Ġfascinating": 8305,
      "ĠFrankie": 8306,
      "Maya": 8307,
      "Ġprickly": 8308,
      "Ġsculpture": 8309,
      "udolph": 8310,
      "Buzz": 8311,
      "Pl": 8312,
      "Put": 8313,
      "free": 8314,
      "oss": 8315,
      "Ġ5": 8316,
      "Ġsens": 8317,
      "Ġbas": 8318,
      "idnight": 8319,
      "immered": 8320,
      "Ġrumbling": 8321,
      "rick": 8322,
      "Ġmommies": 8323,
      "Ġweighing": 8324,
      "ĠBa": 8325,
      "ĠBaa": 8326,
      "ĠBonnie": 8327,
      "Ġshorter": 8328,
      "ĠAlly": 8329,
      "ddie": 8330,
      "ĠLia": 8331,
      "ĠDuck": 8332,
      "ĠFiona": 8333,
      "Ġpeep": 8334,
      "ĠAnnabelle": 8335,
      "Ġdonkey": 8336,
      "ÅĵMaybe": 8337,
      "Ġleaking": 8338,
      "Ġbuckled": 8339,
      "Ġbathing": 8340,
      "Ġreturning": 8341,
      "screen": 8342,
      "Ġseatbelt": 8343,
      "Ġwhisk": 8344,
      "Ġtesting": 8345,
      "Ġchecking": 8346,
      "Ġmodels": 8347,
      "Ġlabels": 8348,
      "Ġknocking": 8349,
      "Ġenergetic": 8350,
      "ĠPepper": 8351,
      "ĠTrust": 8352,
      "Ġpressing": 8353,
      "Ġsirens": 8354,
      "Ġcustomer": 8355,
      "Ġopportunity": 8356,
      "Ġnatural": 8357,
      "Buddy": 8358,
      "Che": 8359,
      "Nice": 8360,
      "Ġsigning": 8361,
      "Ġbless": 8362,
      "Ġfet": 8363,
      "ouched": 8364,
      "Ġwashes": 8365,
      "Ġodd": 8366,
      "Ġnapped": 8367,
      "anish": 8368,
      "Ġsteth": 8369,
      "Ġplugged": 8370,
      "unic": 8371,
      "Ġshin": 8372,
      "elle": 8373,
      "Ġchill": 8374,
      "Ġblown": 8375,
      "Ġtapping": 8376,
      "Ġsunscreen": 8377,
      "Ġwaterm": 8378,
      "Ġstrum": 8379,
      "Ġteap": 8380,
      "Ġglimmering": 8381,
      "Ġconcent": 8382,
      "Ġclosing": 8383,
      "Ġgrassho": 8384,
      "Ġgulp": 8385,
      "Ġbounces": 8386,
      "Ġpreschool": 8387,
      "Ġmysteries": 8388,
      "Ġwildflowers": 8389,
      "Ġdigs": 8390,
      "Ġstamped": 8391,
      "Ġtraps": 8392,
      "Ġdestroying": 8393,
      "Ġexperiment": 8394,
      "Ġweapons": 8395,
      "ĠAnother": 8396,
      "ĠJonathan": 8397,
      "ĠBirdie": 8398,
      "ĠMaddy": 8399,
      "True": 8400,
      "Ġdefeated": 8401,
      "Ġunwra": 8402,
      "Ġstethos": 8403,
      "Ġconcentr": 8404,
      "',": 8405,
      "Aunt": 8406,
      "Arrr": 8407,
      "Co": 8408,
      "fly": 8409,
      "lor": 8410,
      "vince": 8411,
      "Ġ4": 8412,
      "ouraged": 8413,
      "oma": 8414,
      "Ġbea": 8415,
      "Ġplug": 8416,
      "Ġrebu": 8417,
      "ĠwhatÃ¢": 8418,
      "Ġcarries": 8419,
      "ooks": 8420,
      "andra": 8421,
      "ÅĵBe": 8422,
      "ĠPhil": 8423,
      "Ġconvince": 8424,
      "Ġsoundly": 8425,
      "ĠRuth": 8426,
      "Ġdrip": 8427,
      "Ġsnowy": 8428,
      "uggy": 8429,
      "Ġcourt": 8430,
      "Ġyoungest": 8431,
      "Ġactive": 8432,
      "Ġburns": 8433,
      "ippers": 8434,
      "Ġhunting": 8435,
      "Ġlowered": 8436,
      "Ġbackpacks": 8437,
      "Ġfleas": 8438,
      "Ġsqueaky": 8439,
      "Ġquacking": 8440,
      "Ġrows": 8441,
      "amboo": 8442,
      "Ġmeows": 8443,
      "Uncle": 8444,
      "Ġwounds": 8445,
      "Ġcommon": 8446,
      "Ġembarrassing": 8447,
      "Ġcowboys": 8448,
      "whel": 8449,
      "Ġgallop": 8450,
      "pril": 8451,
      "Ġwatermel": 8452,
      "Ġteapot": 8453,
      "Jessie": 8454,
      "Lena": 8455,
      "Pretty": 8456,
      "oard": 8457,
      "rink": 8458,
      "sie": 8459,
      "Ġlar": 8460,
      "Ġcuc": 8461,
      "ĠTime": 8462,
      "ĠTerry": 8463,
      "ĠHopper": 8464,
      "adually": 8465,
      "Ġformed": 8466,
      "ĠBra": 8467,
      "Ġwhales": 8468,
      "icle": 8469,
      "Ġcanv": 8470,
      "Ġbacks": 8471,
      "Ġfunn": 8472,
      "ĠWigg": 8473,
      "Ġfaith": 8474,
      "Ġswat": 8475,
      "Ġswallow": 8476,
      "Ġaboard": 8477,
      "ĠSamantha": 8478,
      "Ġintently": 8479,
      "Ġoverwhel": 8480,
      "ĠPink": 8481,
      "ĠGemma": 8482,
      "Josh": 8483,
      "Ġmesses": 8484,
      "Ġmessages": 8485,
      "Ġcompared": 8486,
      "otte": 8487,
      "Ġprod": 8488,
      "Ġprog": 8489,
      "Ġwelcoming": 8490,
      "Instead": 8491,
      "arlotte": 8492,
      "Ġadds": 8493,
      "Ġgoats": 8494,
      "Ġtanks": 8495,
      "Ġpantry": 8496,
      "faction": 8497,
      "Ġcrystals": 8498,
      "ĠPeep": 8499,
      "ĠPeggy": 8500,
      "Ġburger": 8501,
      "Ġoffering": 8502,
      "Ġfloats": 8503,
      "Ġdemanding": 8504,
      "Ġsatisfaction": 8505,
      "Ġopinions": 8506,
      "ĠTwinkle": 8507,
      "Ġcommunic": 8508,
      "Ġtypes": 8509,
      "ĠTessa": 8510,
      "ĠQuackers": 8511,
      "reya": 8512,
      "ĠRocky": 8513,
      "Ġmatey": 8514,
      "Ġgrasshopper": 8515,
      "Ġstethoscope": 8516,
      "Hold": 8517,
      "Vroom": 8518,
      "iens": 8519,
      "jest": 8520,
      "ris": 8521,
      "Ġtips": 8522,
      "ĠHold": 8523,
      "Ġinter": 8524,
      "Ġshave": 8525,
      "Ġwhimp": 8526,
      "ĠMuffin": 8527,
      "ĠJu": 8528,
      "Ġaliens": 8529,
      "Ġbride": 8530,
      "ĠWin": 8531,
      "roll": 8532,
      "Ġability": 8533,
      "Ġque": 8534,
      "than": 8535,
      "ĠNice": 8536,
      "ĠRudolph": 8537,
      "Ġcompete": 8538,
      "Ġjoyfully": 8539,
      "Ġcreams": 8540,
      "Ġbats": 8541,
      "Ġmedals": 8542,
      "Ġanswering": 8543,
      "Ġthicker": 8544,
      "Ġsqueezes": 8545,
      "Ġapology": 8546,
      "Ġscares": 8547,
      "Ġmember": 8548,
      "Ġcops": 8549,
      "Ġguarding": 8550,
      "Ġimproving": 8551,
      "Ġproviding": 8552,
      "Quack": 8553,
      "Ġrobbers": 8554,
      "ĠPoor": 8555,
      "ĠHootie": 8556,
      "ĠEliz": 8557,
      "Ġdetails": 8558,
      "Ġtemptation": 8559,
      "ĠStanley": 8560,
      "Suzie": 8561,
      "Ġslithered": 8562,
      "Ġresponsibility": 8563,
      "Ġreappeared": 8564,
      "Ġvibrant": 8565,
      "Ġfaint": 8566,
      "Ġwatermelon": 8567,
      "Big": 8568,
      "Feeling": 8569,
      "Jon": 8570,
      "Lizzie": 8571,
      "Mart": 8572,
      "lock": 8573,
      "prin": 8574,
      "well": 8575,
      "Ġtilted": 8576,
      "Ġsipped": 8577,
      "Ġtopp": 8578,
      "omb": 8579,
      "ĠTre": 8580,
      "Ġgroom": 8581,
      "Ġhab": 8582,
      "stand": 8583,
      "stantly": 8584,
      "Ġdolly": 8585,
      "Ġspies": 8586,
      "ĠAgain": 8587,
      "ĠJasmine": 8588,
      "arefully": 8589,
      "Ġroast": 8590,
      "Ġtreas": 8591,
      "Ġlapt": 8592,
      "ĠLots": 8593,
      "Ġgrumbled": 8594,
      "Ġbubbly": 8595,
      "ĠColin": 8596,
      "Thomas": 8597,
      "ÅĵOk": 8598,
      "aste": 8599,
      "Ġcleans": 8600,
      "ĠRight": 8601,
      "Ġamused": 8602,
      "ship": 8603,
      "Ġhotter": 8604,
      "Ġsprang": 8605,
      "Ġprotection": 8606,
      "Ġtunes": 8607,
      "ĠDonÃ¢": 8608,
      "Ġtorto": 8609,
      "Ġcompliment": 8610,
      "ĠPeppa": 8611,
      "Ġbeeping": 8612,
      "Ġgroan": 8613,
      "ĠSnowball": 8614,
      "Ġstudent": 8615,
      "Ġharvest": 8616,
      "Ġsnaps": 8617,
      "Ġspilling": 8618,
      "etchup": 8619,
      "ĠMelissa": 8620,
      "Ġbehaviour": 8621,
      "ĠPlaying": 8622,
      "Ġexperiences": 8623,
      "Ġpossess": 8624,
      "elieve": 8625,
      "Ġdrowned": 8626,
      "Ġdiscouraged": 8627,
      "Ġunable": 8628,
      "Ġcanvas": 8629,
      "Ġqueens": 8630,
      "Abby": 8631,
      "ca": 8632,
      "wing": 8633,
      "ĠYum": 8634,
      "Ġbamboo": 8635,
      "Ġmunched": 8636,
      "ĠSal": 8637,
      "ori": 8638,
      "Ġupside": 8639,
      "ending": 8640,
      "Ġketchup": 8641,
      "ĠMoo": 8642,
      "icking": 8643,
      "ĠDuke": 8644,
      "venir": 8645,
      "Ġench": 8646,
      "Ġlongest": 8647,
      "ĠJoJo": 8648,
      "Ġflowing": 8649,
      "ully": 8650,
      "Ġcheated": 8651,
      "Ġglittered": 8652,
      "Ġwinds": 8653,
      "Ġbluebird": 8654,
      "Ġmeaning": 8655,
      "Ġcrouched": 8656,
      "angle": 8657,
      "idents": 8658,
      "Ġnecks": 8659,
      "Ġservant": 8660,
      "ĠAlison": 8661,
      "Ġhonesty": 8662,
      "Ġcroaked": 8663,
      "Ġsuccessfully": 8664,
      "Ġbeetles": 8665,
      "Ġenvelopes": 8666,
      "Ġmiller": 8667,
      "Ġkayaking": 8668,
      "Ġquarre": 8669,
      "Ġfreezing": 8670,
      "Choo": 8671,
      "Chirp": 8672,
      "ĠVroom": 8673,
      "Ġcubs": 8674,
      "ccidents": 8675,
      "Ġcalmer": 8676,
      "ĠCatty": 8677,
      "ĠLiam": 8678,
      "Which": 8679,
      "Ġdodged": 8680,
      "Ġearned": 8681,
      "Ġsouvenir": 8682,
      "ĠMagic": 8683,
      "ĠNancy": 8684,
      "Ġelectricity": 8685,
      "Brownie": 8686,
      "Ġrebuild": 8687,
      "Ġlarger": 8688,
      "Ġlaptop": 8689,
      "Curious": 8690,
      "Pip": 8691,
      "Â¦": 8692,
      "Ġtheat": 8693,
      "Ġlim": 8694,
      "idi": 8695,
      "Ġhamb": 8696,
      "ĠSleep": 8697,
      "ĠSuper": 8698,
      "ĠweÃ¢": 8699,
      "Ġwhined": 8700,
      "ĠAlf": 8701,
      "âĤ¬Â¦": 8702,
      "ĠDoug": 8703,
      "ĠFuzz": 8704,
      "Ġposes": 8705,
      "Ġbund": 8706,
      "emon": 8707,
      "ĠCro": 8708,
      "ĠPa": 8709,
      "ĠPu": 8710,
      "Ġunco": 8711,
      "ulars": 8712,
      "ĠAllie": 8713,
      "Ġsalon": 8714,
      "ĠStill": 8715,
      "Ġ''": 8716,
      "Ġsnapping": 8717,
      "ĠBruce": 8718,
      "Ġmiracle": 8719,
      "ĠBubba": 8720,
      "Ġintelligence": 8721,
      "Ġcombed": 8722,
      "Ġvolcanoes": 8723,
      "Ġbinoc": 8724,
      "Ġhaircuts": 8725,
      "Ġrags": 8726,
      "Ġrepeats": 8727,
      "ĠIsn": 8728,
      "Ġsituations": 8729,
      "ĠOlivia": 8730,
      "Ġjudges": 8731,
      "Ġlocal": 8732,
      "Ġoverwhelmed": 8733,
      "Ġtreasured": 8734,
      "Ġtheatre": 8735,
      "Ġhambur": 8736,
      "Ġbinoculars": 8737,
      "Gina": 8738,
      "Lizzy": 8739,
      "barrow": 8740,
      "car": 8741,
      "over": 8742,
      "yle": 8743,
      "Ãĥ": 8744,
      "Ġtot": 8745,
      "Ġborn": 8746,
      "Ġbiscuit": 8747,
      "Ġlush": 8748,
      "Ġdashed": 8749,
      "Ġpuck": 8750,
      "Ġpouch": 8751,
      "iliar": 8752,
      "ĠSay": 8753,
      "onest": 8754,
      "oto": 8755,
      "Ġinches": 8756,
      "igger": 8757,
      "amiliar": 8758,
      "Ġshattered": 8759,
      "Ġdoves": 8760,
      "ĠMidnight": 8761,
      "Ġknives": 8762,
      "ĠWil": 8763,
      "ĠWoo": 8764,
      "Ġworst": 8765,
      "ellie": 8766,
      "ĠEver": 8767,
      "Ġbloss": 8768,
      "ĠDra": 8769,
      "Ġhoses": 8770,
      "Ġtrigger": 8771,
      "Ġglided": 8772,
      "Ġracer": 8773,
      "Ġstores": 8774,
      "Ġcris": 8775,
      "Ġcrops": 8776,
      "ĠRicky": 8777,
      "Ġruff": 8778,
      "Ġdrill": 8779,
      "shaped": 8780,
      "Ġtops": 8781,
      "Ġchopping": 8782,
      "Ġdryer": 8783,
      "ĠOf": 8784,
      "ĠOuch": 8785,
      "Everyday": 8786,
      "Ġserving": 8787,
      "Ġpleasant": 8788,
      "Ġhummed": 8789,
      "Ġmoonlight": 8790,
      "Ġshoots": 8791,
      "Ġwheelbarrow": 8792,
      "Ġjogger": 8793,
      "Ġmelody": 8794,
      "Ġexplaining": 8795,
      "ibly": 8796,
      "ĠMatilda": 8797,
      "Ġchatted": 8798,
      "Ġunfamiliar": 8799,
      "Ġswirls": 8800,
      "ĠMonkey": 8801,
      "Ġchoosing": 8802,
      "Ġsnorted": 8803,
      "Ġpositive": 8804,
      "ĠImmediately": 8805,
      "Ġtortoise": 8806,
      "Bu": 8807,
      "Deal": 8808,
      "HE": 8809,
      "Never": 8810,
      "Ollie": 8811,
      "Red": 8812,
      "lish": 8813,
      "off": 8814,
      "edic": 8815,
      "Ġhike": 8816,
      "Ġfade": 8817,
      "Ġlump": 8818,
      "Ġcine": 8819,
      "erg": 8820,
      "Ġdou": 8821,
      "Ġpipes": 8822,
      "enn": 8823,
      "Ġnanny": 8824,
      "ĠSince": 8825,
      "Ġthump": 8826,
      "Ġbeast": 8827,
      "Ġshines": 8828,
      "endant": 8829,
      "Ġnoticing": 8830,
      "Ġank": 8831,
      "ĠAr": 8832,
      "ĠApril": 8833,
      "Ġlevers": 8834,
      "Ġswap": 8835,
      "Ġblushed": 8836,
      "uddles": 8837,
      "Ġrunner": 8838,
      "Ġenem": 8839,
      "Ġglisten": 8840,
      "Ġunderwater": 8841,
      "Ġfinishes": 8842,
      "Ġrealizes": 8843,
      "Ġmajest": 8844,
      "Ġenjoyable": 8845,
      "ĠRich": 8846,
      "shadow": 8847,
      "Ġhatched": 8848,
      "Ġstepping": 8849,
      "Ġpapa": 8850,
      "Ġdrying": 8851,
      "colored": 8852,
      "Ġpasses": 8853,
      "Ġdisappointment": 8854,
      "ĠBehind": 8855,
      "Ġtwists": 8856,
      "Ġhunters": 8857,
      "Ġscattering": 8858,
      "Ġsupporting": 8859,
      "Ġluckiest": 8860,
      "Ġunlocking": 8861,
      "Ġstrips": 8862,
      "Ġburgers": 8863,
      "ÅĵWeÃ¢": 8864,
      "ĠCaroline": 8865,
      "Ġannounced": 8866,
      "ĠMae": 8867,
      "Ġproperty": 8868,
      "Ġbruises": 8869,
      "Ġcinema": 8870,
      "Ġenemies": 8871,
      "!'.": 8872,
      "Friend": 8873,
      "Jacob": 8874,
      "Kayla": 8875,
      "Mabel": 8876,
      "Nick": 8877,
      "Snow": 8878,
      "cus": 8879,
      "ker": 8880,
      "Ġicky": 8881,
      "Ġwig": 8882,
      "nded": 8883,
      "Ġbomb": 8884,
      "Ġhood": 8885,
      "Ġlull": 8886,
      "ĠHa": 8887,
      "aming": 8888,
      "Ġforts": 8889,
      "ĠBounce": 8890,
      "ĠBuggy": 8891,
      "alled": 8892,
      "Ġwhir": 8893,
      "ecca": 8894,
      "Ġbold": 8895,
      "Ġexamp": 8896,
      "Ġclut": 8897,
      "ĠLenny": 8898,
      "Ġgoodness": 8899,
      "ĠDe": 8900,
      "ĠJody": 8901,
      "Ġbadger": 8902,
      "Ġdev": 8903,
      "Ġstew": 8904,
      "ĠDoes": 8905,
      "ĠFlora": 8906,
      "Still": 8907,
      "Ġmeadows": 8908,
      "Ġcircled": 8909,
      "Ġcaterpillars": 8910,
      "Ġweaker": 8911,
      "Ġcherish": 8912,
      "Along": 8913,
      "Ġhooks": 8914,
      "Ġmugs": 8915,
      "ĠShare": 8916,
      "Ġwiggling": 8917,
      "Ġthumbs": 8918,
      "Ġrails": 8919,
      "ĠWhoever": 8920,
      "Robbie": 8921,
      "Ġdaily": 8922,
      "Ġrevealing": 8923,
      "ĠMona": 8924,
      "Ġchooses": 8925,
      "Ġwriggled": 8926,
      "Ġpeeped": 8927,
      "Both": 8928,
      "Hmm": 8929,
      "Kids": 8930,
      "Zoom": 8931,
      "gar": 8932,
      "ĠOh": 8933,
      "Ġactor": 8934,
      "Ġgoo": 8935,
      "Ġgates": 8936,
      "Ġnic": 8937,
      "orking": 8938,
      "ĠHurry": 8939,
      "Ġriddle": 8940,
      "Ġplumber": 8941,
      "Ġplayd": 8942,
      "ĠBoo": 8943,
      "Ġboards": 8944,
      "ics": 8945,
      "Ġlevel": 8946,
      "Ġscow": 8947,
      "Ġscores": 8948,
      "Ġroamed": 8949,
      "Ġprank": 8950,
      "Ġpoles": 8951,
      "Ġpeas": 8952,
      "Ġpeak": 8953,
      "Ġtrim": 8954,
      "Ġbud": 8955,
      "ĠNever": 8956,
      "Ġdifferently": 8957,
      "Ġbowing": 8958,
      "Ġhunger": 8959,
      "Ġarmor": 8960,
      "ĠKaty": 8961,
      "Ġroller": 8962,
      "ouncy": 8963,
      "Ġcafe": 8964,
      "ĠStartled": 8965,
      "Ġtests": 8966,
      "keepers": 8967,
      "Spike": 8968,
      "Ġsilently": 8969,
      "Ġangrily": 8970,
      "Ġhamster": 8971,
      "Ġdesigner": 8972,
      "uction": 8973,
      "ĠShow": 8974,
      "Ġpoisonous": 8975,
      "ĠReady": 8976,
      "Ġladybird": 8977,
      "Ġhonks": 8978,
      "Ġannoying": 8979,
      "ĠSunshine": 8980,
      "Ġgasps": 8981,
      "Ġscenery": 8982,
      "Ġinjured": 8983,
      "Ġdistracted": 8984,
      "ĠBernie": 8985,
      "ĠTyler": 8986,
      "Ġbeaver": 8987,
      "Ġnicest": 8988,
      "Lucky": 8989,
      "Santa": 8990,
      "Tara": 8991,
      "jack": 8992,
      "just": 8993,
      "Ġouch": 8994,
      "Ġhudd": 8995,
      "Ġheels": 8996,
      "ĠToto": 8997,
      "ann": 8998,
      "uno": 8999,
      "ĠBad": 9000,
      "Ġlocks": 9001,
      "ĠAccidents": 9002,
      "hings": 9003,
      "Ġblur": 9004,
      "ĠFreya": 9005,
      "Ġmoat": 9006,
      "ucas": 9007,
      "ĠJackÃ¢": 9008,
      "ĠJackie": 9009,
      "berry": 9010,
      "Ġraking": 9011,
      "ÅĵYay": 9012,
      "Ġwolves": 9013,
      "cts": 9014,
      "ĠPaw": 9015,
      "ĠGabby": 9016,
      "Ġbaa": 9017,
      "Ġattitude": 9018,
      "earl": 9019,
      "Ġalongside": 9020,
      "oga": 9021,
      "balls": 9022,
      "Everything": 9023,
      "Ġpills": 9024,
      "ĠGold": 9025,
      "Ġstirs": 9026,
      "Ġtrusts": 9027,
      "Ġstuffing": 9028,
      "Ġcracker": 9029,
      "Although": 9030,
      "Ġrewarding": 9031,
      "Ġlizards": 9032,
      "Ġexercising": 9033,
      "aitlyn": 9034,
      "ĠOrange": 9035,
      "Ġhesitation": 9036,
      "ĠOliver": 9037,
      "Ġcrowded": 9038,
      "Ġchatting": 9039,
      "Ġflashes": 9040,
      "Ġblonde": 9041,
      "Ġhooves": 9042,
      "Ġsoothing": 9043,
      "ĠSkip": 9044,
      "Ġcommunicate": 9045,
      "Ġankle": 9046,
      "Ġglistening": 9047,
      "Ġexample": 9048,
      "Danger": 9049,
      "Gabby": 9050,
      "Jazz": 9051,
      "Tiny": 9052,
      "field": 9053,
      "hib": 9054,
      "rupt": 9055,
      "Ġthie": 9056,
      "lest": 9057,
      "Ġrack": 9058,
      "Ġripp": 9059,
      "Ġhisses": 9060,
      "ĠBang": 9061,
      "Ġwhizz": 9062,
      "Ġrecess": 9063,
      "ĠJam": 9064,
      "Ġfacing": 9065,
      "Ġotherwise": 9066,
      "ĠEd": 9067,
      "Ġblades": 9068,
      "Ġbecomes": 9069,
      "oured": 9070,
      "Ġpose": 9071,
      "Ġmoons": 9072,
      "ĠWeÃ¢": 9073,
      "Ġglared": 9074,
      "ÅĵMummy": 9075,
      "ÅĵThanks": 9076,
      "ĠGray": 9077,
      "Ġdears": 9078,
      "Ġsweetly": 9079,
      "Ġfloppy": 9080,
      "Ġmessed": 9081,
      "ĠAfterwards": 9082,
      "Ġguards": 9083,
      "Ġinvites": 9084,
      "scotch": 9085,
      "Ġshrugs": 9086,
      "Ġcoolest": 9087,
      "ĠLeah": 9088,
      "Ġstriking": 9089,
      "Ġhoops": 9090,
      "Ġcurl": 9091,
      "iolet": 9092,
      "Ġmayor": 9093,
      "abra": 9094,
      "Ġlumberjack": 9095,
      "Davey": 9096,
      "Ġcaution": 9097,
      "Ahoy": 9098,
      "Ġstroller": 9099,
      "ĠAuntie": 9100,
      "ĠExcitedly": 9101,
      "Ġcertainly": 9102,
      "Ġundone": 9103,
      "Betty": 9104,
      "Ġsweaters": 9105,
      "Ġtransformed": 9106,
      "ĠPenelope": 9107,
      "Ġenchanted": 9108,
      "Ġhuddled": 9109,
      "Bear": 9110,
      "Slowly": 9111,
      "ders": 9112,
      "pan": 9113,
      "sa": 9114,
      "Ġwaking": 9115,
      "Ġcages": 9116,
      "ĠTears": 9117,
      "ĠTammy": 9118,
      "isdom": 9119,
      "Ġnations": 9120,
      "ĠSil": 9121,
      "ĠSweet": 9122,
      "lephant": 9123,
      "Ġinvent": 9124,
      "Ġkit": 9125,
      "ĠMamma": 9126,
      "Ġgogg": 9127,
      "ĠAnt": 9128,
      "Ġarrest": 9129,
      "Ġaroma": 9130,
      "gets": 9131,
      "ĠWilly": 9132,
      "agine": 9133,
      "ifi": 9134,
      "Ġcharm": 9135,
[...]
